{
  "</s>": 0,
  "<unk>": 1,
  ",": 2,
  ".": 3,
  "\u2581\"": 4,
  "\u2581the": 5,
  "\u2581na": 6,
  "\u2581ya": 7,
  "\u2581to": 8,
  "\u2581of": 9,
  "\u2581wa": 10,
  "\u2581and": 11,
  "\u2581-": 12,
  "\u2581a": 13,
  "\u2581in": 14,
  "?": 15,
  "\u2581kwa": 16,
  ":": 17,
  "s": 18,
  "\u2581that": 19,
  "\u2581katika": 20,
  "\u2581is": 21,
  "'": 22,
  "\u2581kwamba": 23,
  "\u2581for": 24,
  "\u2581ni": 25,
  "\u2581la": 26,
  "\u2581I": 27,
  "\u2581za": 28,
  "\u2581kuwa": 29,
  "\u2581Yehova": 30,
  "\u2581with": 31,
  "\u2581was": 32,
  "\u2581Mungu": 33,
  "\u2581Jehovah": 34,
  "\u2581you": 35,
  "\u2581be": 36,
  "\u2581on": 37,
  "\u2581God": 38,
  "\u2581his": 39,
  "\u2581The": 40,
  "\u2581we": 41,
  "\u2581as": 42,
  "\u2581not": 43,
  "\u2581are": 44,
  "\u2581watu": 45,
  "a": 46,
  "\u2581have": 47,
  "\u2581'": 48,
  "\u2581it": 49,
  "\u2581Kwa": 50,
  "\u2581[": 51,
  "\u2581sana": 52,
  "\u2581he": 53,
  "\u2581will": 54,
  "\u2581": 55,
  "\u2581ili": 56,
  "\u2581by": 57,
  "\u2581from": 58,
  "\u2581hiyo": 59,
  "!": 60,
  "\u2581kama": 61,
  "\u2581(": 62,
  "\u2581their": 63,
  "\u2581Biblia": 64,
  "\u2581can": 65,
  "\u2581Bible": 66,
  "ing": 67,
  ";": 68,
  "\u2581or": 69,
  "\u2581hivyo": 70,
  "\u2581hivi": 71,
  "\u2581wakati": 72,
  "\u2581they": 73,
  "\u2581our": 74,
  "\u2581who": 75,
  "\u2581yake": 76,
  "\u2581Yesu": 77,
  "\u2581mambo": 78,
  "\u2581this": 79,
  "\u2581Jesus": 80,
  ")": 81,
  "\u2581cha": 82,
  "\u2581tu": 83,
  "\u2581us": 84,
  "\u2581wake": 85,
  "\u2581zaidi": 86,
  "\u2581sababu": 87,
  "\u2581gani": 88,
  "\u2581at": 89,
  "\u2581were": 90,
  "\u2581your": 91,
  "\u2581fulani": 92,
  "\u2581one": 93,
  "\u2581hilo": 94,
  "\u2581what": 95,
  "\u2581had": 96,
  "\u2581do": 97,
  "\u2581an": 98,
  "]": 99,
  "\u2581au": 100,
  "\u2581all": 101,
  "\u2581kwenye": 102,
  "\u2581nini": 103,
  "\u2581In": 104,
  "\u2581people": 105,
  "\u2581What": 106,
  "\u2581yenye": 107,
  "\u2581about": 108,
  "\u25811": 109,
  "\u2581my": 110,
  "\u2581them": 111,
  "\u2581Ni": 112,
  "\u2581kufanya": 113,
  "\u2581has": 114,
  "\u2581wenye": 115,
  "\u2581A": 116,
  "\u2581him": 117,
  "\u2581when": 118,
  "\u2581kweli": 119,
  "\u2581would": 120,
  "\u2581kazi": 121,
  "\u2581huo": 122,
  "\u2581kuhusu": 123,
  "\u2581time": 124,
  "\u2581pia": 125,
  "\u2581ambayo": 126,
  "\u2581/": 127,
  "\u2581may": 128,
  "\u2581Hata": 129,
  "\u2581jambo": 130,
  "\u2581juu": 131,
  "\u2581but": 132,
  "\u2581kutoka": 133,
  "\u2581life": 134,
  "\u2581mtu": 135,
  "\u2581vya": 136,
  "\u2581How": 137,
  "\u2581more": 138,
  "\u2581me": 139,
  "\u2581did": 140,
  "\u2581miaka": 141,
  "\u2581so": 142,
  "\u2581wengine": 143,
  "\u2581hayo": 144,
  "\u2581nyingi": 145,
  "\u2581ambao": 146,
  "\u2581ali": 147,
  "\u2581moja": 148,
  "\u2581some": 149,
  "\u2581yao": 150,
  "\u2581alikuwa": 151,
  "\u2581kila": 152,
  "\u2581njia": 153,
  "\u2581those": 154,
  "\u2581also": 155,
  "\u2581ukurasa": 156,
  "\u2581Je": 157,
  "\u2581hata": 158,
  "\u2581Lakini": 159,
  "\u2581wao": 160,
  "\u2581wengi": 161,
  "\u2581He": 162,
  "\u2581hu": 163,
  "\u2581pamoja": 164,
  "\u2581ku": 165,
  "\u2581been": 166,
  "\u2581her": 167,
  "\u2581It": 168,
  "\u2581many": 169,
  "\u2581hali": 170,
  "\u2581M": 171,
  "\u2581page": 172,
  "\u2581mwenye": 173,
  "\u2581out": 174,
  "\u2581yetu": 175,
  "\u2581siku": 176,
  "\u2581such": 177,
  "\u2581moyo": 178,
  "ed": 179,
  "\u2581how": 180,
  "\u2581up": 181,
  "\u2581lakini": 182,
  "\u2581jinsi": 183,
  "\u2581mwaka": 184,
  "\u2581help": 185,
  "\u2581.": 186,
  "\u2581wote": 187,
  "\u2581mara": 188,
  "\u2581Katika": 189,
  "ly": 190,
  "\u2581than": 191,
  "\u2581huko": 192,
  "\u2581other": 193,
  "\u2581ana": 194,
  "\u2581habari": 195,
  "\u2581Witnesses": 196,
  "\u2581good": 197,
  "\u2581there": 198,
  "\u2581watoto": 199,
  "\u2581mmoja": 200,
  "\u2581We": 201,
  "\u2581Mashahidi": 202,
  "\u2581if": 203,
  "\u2581no": 204,
  "\u2581which": 205,
  "\u2581years": 206,
  "\u2581even": 207,
  "\u2581maisha": 208,
  "\u2581way": 209,
  "\u25814": 210,
  "\u25815": 211,
  "e": 212,
  "\u2581world": 213,
  "\u2581into": 214,
  "\u2581Picha": 215,
  "\u2581work": 216,
  "\u2581wana": 217,
  "\u2581m": 218,
  "\"": 219,
  "\u2581could": 220,
  "\u2581says": 221,
  "\u2581yangu": 222,
  "\u2581said": 223,
  "\u2581When": 224,
  "\u2581si": 225,
  "\u2581does": 226,
  "b": 227,
  "\u2581these": 228,
  "\u2581But": 229,
  "i": 230,
  "\u2581things": 231,
  "\u2581love": 232,
  "\u2581kwanza": 233,
  "\u2581nguvu": 234,
  "\u2581make": 235,
  "\u2581kabisa": 236,
  "\u2581yote": 237,
  "\u2581Wakristo": 238,
  "\u2581should": 239,
  "\u2581wale": 240,
  "\u2581wetu": 241,
  "ni": 242,
  "\u2581she": 243,
  "\u2581ndani": 244,
  "\u2581hizo": 245,
  "\u2581day": 246,
  "\u2581first": 247,
  "\u2581For": 248,
  "\u2581hao": 249,
  "\u2581man": 250,
  "\u2581Paul": 251,
  "\u2581ikiwa": 252,
  "\u2581This": 253,
  "\u25812": 254,
  "t": 255,
  "\u2581wako": 256,
  "\u2581U": 257,
  "\u2581kati": 258,
  "\u2581*": 259,
  "\u2581huyo": 260,
  "\u2581Paulo": 261,
  "\u2581children": 262,
  "\u2581wanadamu": 263,
  "\u2581earth": 264,
  "\u2581familia": 265,
  "\u2581ambaye": 266,
  "\u2581Why": 267,
  "\u2581muda": 268,
  "\u2581They": 269,
  "\u2581only": 270,
  "\u2581yako": 271,
  "\u2581vile": 272,
  "\u2581its": 273,
  "\u2581others": 274,
  "paswa": 275,
  "\u2581sehemu": 276,
  "o": 277,
  "na": 278,
  "\u2581bila": 279,
  "\u2581Christian": 280,
  "\u2581made": 281,
  "\u2581upendo": 282,
  "\u2581because": 283,
  "\u2581Ku": 284,
  "\u2581kupata": 285,
  "\u2581family": 286,
  "\u2581If": 287,
  "\u2581over": 288,
  "\u2581walikuwa": 289,
  "\u2581need": 290,
  "\u2581maana": 291,
  "\u2581una": 292,
  "\u2581kuna": 293,
  "\u2581As": 294,
  "\u2581Picture": 295,
  "\u2581kubwa": 296,
  "...": 297,
  "\u2581see": 298,
  "\u2581mfano": 299,
  "\u2581kiroho": 300,
  "\u2581example": 301,
  "\u2581like": 302,
  "\u2581roho": 303,
  "\u2581You": 304,
  "\u2581namna": 305,
  "\u2581walio": 306,
  "\u2581tena": 307,
  "\u2581maneno": 308,
  "\u2581kutumia": 309,
  "\u2581Kingdom": 310,
  "\u25813:": 311,
  "\u2581ulimwengu": 312,
  "\u2581mengi": 313,
  "\u2581Christ": 314,
  "\u2581Kristo": 315,
  "\u2581Ufalme": 316,
  "\u2581imani": 317,
  "\u258111": 318,
  "\u2581being": 319,
  "the": 320,
  "\u2581Christians": 321,
  "\u2581ina": 322,
  "\u2581ajili": 323,
  "\u2581nyingine": 324,
  "\u2581Wakati": 325,
  "\u2581just": 326,
  "\u2581well": 327,
  "\u2581then": 328,
  "\u2581karibu": 329,
  "\u2581alisema": 330,
  "\u25818": 331,
  "\u2581wangu": 332,
  "\u2581know": 333,
  "\u2581wali": 334,
  "\u2581naye": 335,
  "\u2581spirit": 336,
  "\u2581aliye": 337,
  "\u2581Watu": 338,
  "\u2581ao": 339,
  "\u2581K": 340,
  "\u2581ndugu": 341,
  "\u2581baada": 342,
  "d": 343,
  "\u2581faith": 344,
  "\u2581u": 345,
  "\u2581must": 346,
  "\u2581take": 347,
  "\u2581nchi": 348,
  "\u2581two": 349,
  "n": 350,
  "\u25812:": 351,
  "\u258115": 352,
  "\u2581Na": 353,
  "\u2581huenda": 354,
  "wa": 355,
  "fanya": 356,
  "\u2581become": 357,
  "\u2581vitu": 358,
  "\u2581after": 359,
  "\u2581chini": 360,
  "\u2581kusema": 361,
  "\u2581come": 362,
  "\u2581most": 363,
  "\u2581before": 364,
  "\u2581heart": 365,
  "\u2581nyumba": 366,
  "\u2581zake": 367,
  "\u2581now": 368,
  "\u25811:": 369,
  "\u2581own": 370,
  "je": 371,
  "\u2581new": 372,
  "\u2581much": 373,
  "\u2581maji": 374,
  "\u2581mahali": 375,
  "\u2581spiritual": 376,
  "\u2581kuliko": 377,
  "\u2581congregation": 378,
  "\u2581kujifunza": 379,
  "\u2581C": 380,
  "\u2581dunia": 381,
  "\u2581kawaida": 382,
  "\u2581very": 383,
  "\u2581parents": 384,
  "\u2581mbalimbali": 385,
  "\u2581true": 386,
  "\u2581any": 387,
  "\u2581yeye": 388,
  "\u2581zenye": 389,
  "\u2581leo": 390,
  "\u2581shaka": 391,
  "\u2581And": 392,
  "\u2581sasa": 393,
  "\u2581death": 394,
  "\u2581found": 395,
  "\u2581kitabu": 396,
  "\u2581words": 397,
  "\u258113": 398,
  "\u258120": 399,
  "\u2581tuna": 400,
  "\u2581kutaniko": 401,
  "\u2581muhimu": 402,
  "\u2581unaweza": 403,
  "m": 404,
  "\u2581Wa": 405,
  "\u2581ndoa": 406,
  "\u2581furaha": 407,
  "\u2581through": 408,
  "\u2581John": 409,
  "\u258114": 410,
  "\u2581wazazi": 411,
  "\u2581nao": 412,
  "\u2581That": 413,
  "\u2581lake": 414,
  "\u2581lazima": 415,
  "\u25816:": 416,
  "\u2581zao": 417,
  "\u2581another": 418,
  "\u2581Ikiwa": 419,
  "\u2581where": 420,
  "S": 421,
  "\u2581W": 422,
  "\u2581person": 423,
  "\u2581ones": 424,
  "\u2581might": 425,
  "\u2581times": 426,
  "\u2581study": 427,
  "\u2581use": 428,
  "\u2581iliyo": 429,
  "I": 430,
  "\u2581year": 431,
  "\u2581men": 432,
  "\u2581feel": 433,
  "E": 434,
  "\u2581So": 435,
  "\u2581name": 436,
  "\u2581find": 437,
  "\u2581Kisha": 438,
  "\u258116": 439,
  "\u2581give": 440,
  "y": 441,
  "\u2581mutu": 442,
  "\u2581ilikuwa": 443,
  "\u2581kupitia": 444,
  "\u2581each": 445,
  "weza": 446,
  "\u2581To": 447,
  "\u2581jina": 448,
  "\u2581book": 449,
  "\u2581matatizo": 450,
  "\u2581anasema": 451,
  "\u2581wanaweza": 452,
  "\u2581tunaweza": 453,
  "\u2581mwisho": 454,
  "\u2581home": 455,
  "\u2581ame": 456,
  "\u2581young": 457,
  "\u2581Ali": 458,
  "\u25811,": 459,
  "\u2581Neno": 460,
  "\u2581vizuri": 461,
  "\u2581used": 462,
  "\u2581One": 463,
  "\u2581Some": 464,
  "\u2581wala": 465,
  "\u2581duniani": 466,
  "\u2581long": 467,
  "\u2581ambazo": 468,
  "\u258112": 469,
  "\u2581S": 470,
  "\u2581part": 471,
  "\u2581However": 472,
  "\u2581lenye": 473,
  "\u2581wanao": 474,
  "\u2581David": 475,
  "u": 476,
  "\u2581Ili": 477,
  "\u258117": 478,
  "\u2581hadi": 479,
  "\u2581say": 480,
  "\u2581today": 481,
  "\u2581sifa": 482,
  "\u25813": 483,
  "\u2581yaliyo": 484,
  "\u2581New": 485,
  "\u2581eneo": 486,
  "\u2581maoni": 487,
  "\u2581hekima": 488,
  "\u2581ambalo": 489,
  "\u2581umri": 490,
  "\u2581akili": 491,
  "\u2581kuona": 492,
  "\u2581human": 493,
  "\u2581aka": 494,
  "\u2581tofauti": 495,
  "\u2581Do": 496,
  "\u2581Pia": 497,
  "\u2581often": 498,
  "),": 499,
  "\u2581same": 500,
  "\u2581wanafunzi": 501,
  "\u2581nzuri": 502,
  "\u2581zote": 503,
  "\u2581mwingine": 504,
  "\u2581learn": 505,
  "\u2581truth": 506,
  "\u2581chakula": 507,
  "\u2581mbele": 508,
  "\u2581kujua": 509,
  "\u258110": 510,
  "\u2581get": 511,
  "\u2581called": 512,
  "\u2581anaweza": 513,
  "\u2581kuhubiri": 514,
  "\u2581great": 515,
  "\u2581Word": 516,
  "\u2581mimi": 517,
  "\u2581Bila": 518,
  "\u2581kuishi": 519,
  "\u2581nyumbani": 520,
  "\u2581hicho": 521,
  "\u2581Hivyo": 522,
  "\u2581keep": 523,
  "\u2581hii": 524,
  "\u2581mwenyewe": 525,
  "\u2581kuonyesha": 526,
  "\u258122": 527,
  "\u2581Shetani": 528,
  "\u2581kifo": 529,
  "\u2581Baba": 530,
  "\u2581never": 531,
  "\u2581against": 532,
  "\u2581lina": 533,
  "\u2581akiwa": 534,
  "\u2581uwezo": 535,
  "\u2581pekee": 536,
  "\u2581though": 537,
  "\u2581why": 538,
  "\u2581important": 539,
  "kuwa": 540,
  "\u2581At": 541,
  "\u2581right": 542,
  "\u2581After": 543,
  "\u2581dini": 544,
  "\u2581Baada": 545,
  "\u2581too": 546,
  "\u2581Is": 547,
  "\u2581Daudi": 548,
  "\u2581kisha": 549,
  "\u2581mwa": 550,
  "\u2581read": 551,
  "\u2581under": 552,
  "\u2581end": 553,
  "\u2581brothers": 554,
  "hi": 555,
  "\u2581inayo": 556,
  "\u2581anaye": 557,
  "\u2581Kikristo": 558,
  "\u2581every": 559,
  "\u2581wrote": 560,
  "\u2581asili": 561,
  "\u2581himself": 562,
  "\u2581means": 563,
  "\u2581am": 564,
  "\u2581place": 565,
  "\u2581huu": 566,
  "\u2581B": 567,
  "\u2581Satan": 568,
  "\u2581put": 569,
  "\u2581want": 570,
  "\u2581kiasi": 571,
  "\u2581haki": 572,
  "\u2581article": 573,
  "\u2581apostle": 574,
  "\u2581down": 575,
  "\u2581became": 576,
  "\u2581back": 577,
  "\u2581uli": 578,
  "\u2581wazi": 579,
  "\u2581go": 580,
  "\u2581show": 581,
  "\u2581live": 582,
  "\u2581old": 583,
  "\u2581hasa": 584,
  "\u2581Kama": 585,
  "\u2581mbinguni": 586,
  "\u2581Israel": 587,
  "\u2581hatari": 588,
  "\u2581Huenda": 589,
  "K": 590,
  "\u2581during": 591,
  "\u2581three": 592,
  "\u2581aina": 593,
  "\u2581sisi": 594,
  "\u2581Peter": 595,
  "\u2581came": 596,
  "\u2581aki": 597,
  "\u2581still": 598,
  "\u2581milele": 599,
  "\u2581kabla": 600,
  "\u2581course": 601,
  "\u2581zetu": 602,
  "\u2581T": 603,
  "A": 604,
  "\u2581lili": 605,
  "\u2581dada": 606,
  "\u2581kitu": 607,
  "\u2581bali": 608,
  "er": 609,
  "\u2581water": 610,
  "tia": 611,
  "\u2581karne": 612,
  "\u2581away": 613,
  "mia": 614,
  "\u2581kutoa": 615,
  "\u2581days": 616,
  "\u2581began": 617,
  "\u2581later": 618,
  "\u2581Yohana": 619,
  "\u258119": 620,
  "\u2581wife": 621,
  "\u2581kuu": 622,
  "\u2581ata": 623,
  "\u2581century": 624,
  "\u2581amani": 625,
  "\u2581worship": 626,
  "\u2581Father": 627,
  "\u2581gazeti": 628,
  "\u2581among": 629,
  "\u25817": 630,
  "\u2581zina": 631,
  "\u2581zamani": 632,
  "\u2581alipo": 633,
  "\u2581Tuna": 634,
  "\u2581sheria": 635,
  "\u2581bora": 636,
  "\u2581mafuta": 637,
  "\u2581ulimwenguni": 638,
  "\u2581haya": 639,
  "\u2581By": 640,
  "\u2581\u2022": 641,
  "al": 642,
  "\u2581mtoto": 643,
  "\u2581wame": 644,
  "\u2581tayari": 645,
  "\u2581however": 646,
  "\u2581baadaye": 647,
  "\u2022": 648,
  "\u25816": 649,
  "\u2581mwili": 650,
  "\u2581word": 651,
  "\u2581told": 652,
  "\u2581bidii": 653,
  "\u2581There": 654,
  "\u2581inasema": 655,
  "\u2581njema": 656,
  "\u2581hatua": 657,
  "\u2581matokeo": 658,
  "\u2581kutia": 659,
  "\u2581wewe": 660,
  "\u2581Namna": 661,
  "\u2581dhambi": 662,
  "\u2581kidogo": 663,
  "\u2581vijana": 664,
  "\u2581With": 665,
  "\u25814.": 666,
  "\u2581ambapo": 667,
  "\u2581Zaburi": 668,
  "\u258121": 669,
  "The": 670,
  "\u2581vita": 671,
  "\u2581She": 672,
  "\u2581upon": 673,
  "\u2581Petro": 674,
  "\u2581ugonjwa": 675,
  "\u2581fact": 676,
  "\u2581On": 677,
  "\u25819": 678,
  "\u2581child": 679,
  "\u2581view": 680,
  "\u2581news": 681,
  "onyesha": 682,
  "\u2581hope": 683,
  "\u2581mind": 684,
  "\u2581without": 685,
  "\u2581Ingawa": 686,
  "\u2581zinazo": 687,
  "\u2581Many": 688,
  "r": 689,
  "\u2581ministry": 690,
  "\u2581while": 691,
  "\u2581living": 692,
  "\u2581kusudi": 693,
  "\u2581mama": 694,
  "\u2581uhusiano": 695,
  "\u2581result": 696,
  "\u2581able": 697,
  "\u2581faithful": 698,
  "\u2581Our": 699,
  "\u2581tumaini": 700,
  "\u2581Marekani": 701,
  "\u2581mkubwa": 702,
  "\u2581yale": 703,
  "\u2581From": 704,
  "\u258125": 705,
  "\u25812.": 706,
  "\u2581neno": 707,
  "\u2581mufano": 708,
  "\u258112:": 709,
  "\u2581think": 710,
  "\u2581No": 711,
  "\u2581between": 712,
  "\u2581wenyewe": 713,
  "\u2581My": 714,
  "ku": 715,
  "tiwa": 716,
  "\u2581nchini": 717,
  "\u2581ndiye": 718,
  "\u2581huwa": 719,
  "\u2581set": 720,
  "\u2581baba": 721,
  "\u2581zilizo": 722,
  "\u2581kuendelea": 723,
  "\u2581gave": 724,
  "\u2581themselves": 725,
  "\u2581muzuri": 726,
  "\u2581hili": 727,
  "\u2581power": 728,
  "\u2581Psalm": 729,
  "\u2581both": 730,
  "\u2581lugha": 731,
  "\u2581always": 732,
  "\u2581damu": 733,
  "\u2581Waisraeli": 734,
  "\u2581sala": 735,
  "\u2581father": 736,
  "\u2581bado": 737,
  "\u2581serve": 738,
  "\u2581let": 739,
  "\u2581knowledge": 740,
  "\u2581given": 741,
  "\u2581making": 742,
  "\u2581mbali": 743,
  "\u2581Then": 744,
  "\u2581D": 745,
  "\u2581mother": 746,
  "\u2581tamaa": 747,
  "\u2581Nili": 748,
  "\u2581Hilo": 749,
  "C": 750,
  "\u2581Matthew": 751,
  "\u2581hakika": 752,
  "\u258110.": 753,
  "\u2581Maandiko": 754,
  "\u2581haku": 755,
  "\u2581tunapaswa": 756,
  "\u258130": 757,
  "\u2581food": 758,
  "\u2581consider": 759,
  "\u2581city": 760,
  "\u2581inaweza": 761,
  "\u2581mbili": 762,
  "\u2581pa": 763,
  "\u2581really": 764,
  "th": 765,
  "\u2581doing": 766,
  "\u2581ulio": 767,
  "\u2581took": 768,
  "\u2581preaching": 769,
  "\u2581humans": 770,
  "\u2581number": 771,
  "\u25817.": 772,
  "\u2581Even": 773,
  "\u2581huku": 774,
  "\u2581nafasi": 775,
  "\u2581ways": 776,
  "\u2581holy": 777,
  "\u2581wawili": 778,
  "\u2581Mathayo": 779,
  "\u2581few": 780,
  "\u25818,": 781,
  "\u258114.": 782,
  "\u2581lililo": 783,
  "\u2581hand": 784,
  "\u2581kanuni": 785,
  "\u2581King": 786,
  "\u258112.": 787,
  "\u2581marriage": 788,
  "\u258118": 789,
  "\u2581little": 790,
  "\u2581Zaidi": 791,
  "\u2581Scriptures": 792,
  "\u25815.": 793,
  "\u2581wakiwa": 794,
  "\u2581kale": 795,
  "\u2581asked": 796,
  "\u258110:": 797,
  "\u2581makala": 798,
  "\u2581His": 799,
  "\u2581Mambo": 800,
  "\u25818.": 801,
  "\u2581World": 802,
  "\u258111.": 803,
  "\u2581bring": 804,
  "\u2581mingi": 805,
  "\u2581hapo": 806,
  "\u2581ime": 807,
  "\u2581known": 808,
  "\u2581mengine": 809,
  "\u2581something": 810,
  "\u2581WA": 811,
  "\u2581faida": 812,
  "\u2581J": 813,
  "\u2581service": 814,
  "\u2581yaani": 815,
  "\u2581full": 816,
  "in": 817,
  "\u2581wanyama": 818,
  "\u2581peace": 819,
  "c": 820,
  "\u2581haraka": 821,
  "\u2581disciples": 822,
  "\u2581Israeli": 823,
  "\u25819.": 824,
  "\u2581mpya": 825,
  "\u2581Yet": 826,
  "\u2581uta": 827,
  "\u258117.": 828,
  "\u2581ibada": 829,
  "\u2581nani": 830,
  "\u2581upande": 831,
  "\u2581house": 832,
  "\u2581ume": 833,
  "namo": 834,
  "\u2581kusoma": 835,
  "\u2581Tunaweza": 836,
  "\u2581Jambo": 837,
  "\u2581yoyote": 838,
  "\u2581yanayo": 839,
  "\u2581aliandika": 840,
  "\u2581look": 841,
  "\u2581questions": 842,
  "\u2581helped": 843,
  "\u2581je": 844,
  "\u2581Mara": 845,
  "\u2581order": 846,
  "\u2581hard": 847,
  "\u2581These": 848,
  "\u2581near": 849,
  "\u258115.": 850,
  "\u2581together": 851,
  "\u2581wazee": 852,
  "\u2581reason": 853,
  "\u2581learned": 854,
  "\u2581rahisi": 855,
  "\u2581wanawake": 856,
  "\u2581someone": 857,
  "\u2581mke": 858,
  "\u2581Yes": 859,
  "\u25817:": 860,
  "\u2581ndiyo": 861,
  "\u2581yana": 862,
  "\u2581marafiki": 863,
  "\u2581son": 864,
  "\u2581purpose": 865,
  "\u2581loving": 866,
  "\u2581problems": 867,
  "\u2581nyakati": 868,
  "\u2581hakuna": 869,
  "\u2581saa": 870,
  "\u2581kadhaa": 871,
  "\u2581religious": 872,
  "\u25816.": 873,
  "\u2581future": 874,
  "\u2581takatifu": 875,
  "\u258116.": 876,
  "\u2581left": 877,
  "\u2581personal": 878,
  "\u2581friends": 879,
  "M": 880,
  "\u2581tatizo": 881,
  "\u2581mikutano": 882,
  "\u2581whom": 883,
  "\u2581kichwa": 884,
  "\u258113.": 885,
  "\u2581jiji": 886,
  "\u2581woman": 887,
  "\u2581off": 888,
  "\u2581s": 889,
  "ji": 890,
  "\u2581ujuzi": 891,
  "\u2581wanaume": 892,
  "\u2581\u25aa": 893,
  "\u2581kuwasaidia": 894,
  "\u2581linalo": 895,
  "\u2581uhai": 896,
  "\u2581mabaya": 897,
  "\u2581wasio": 898,
  "\u2581mankind": 899,
  "\u2581felt": 900,
  "\u2581ambavyo": 901,
  "\u2581yeyote": 902,
  "\u2581mazuri": 903,
  "\u2581Wayahudi": 904,
  "\u2581watumishi": 905,
  "\u2581care": 906,
  "\u2581pesa": 907,
  "\u2581afya": 908,
  "\u2581experience": 909,
  "\u2581better": 910,
  "\u2581Siku": 911,
  "\u2581Musa": 912,
  "\u2581having": 913,
  "\u2581husband": 914,
  "\u2581kulingan": 915,
  "\u2581Unaweza": 916,
  "\u2581hai": 917,
  "\u2581yule": 918,
  "\u2581age": 919,
  "\u2581maeneo": 920,
  "\u2581zili": 921,
  "\u25813.": 922,
  "\u2581different": 923,
  "\u2581huduma": 924,
  "\u2581Sababu": 925,
  "\u2581best": 926,
  "\u2581dawa": 927,
  "\u2581United": 928,
  "\u2581karibuni": 929,
  "\u2581msaada": 930,
  "\u2581ndio": 931,
  "\u2581following": 932,
  "\u2581toward": 933,
  "re": 934,
  "\u2581Maelezo": 935,
  "\u2581high": 936,
  "\u2581nilikuwa": 937,
  "\u2581body": 938,
  "\u2581possible": 939,
  "\u258123": 940,
  "\u2581fellow": 941,
  "\u2581free": 942,
  "\u2581tatu": 943,
  "\u2581close": 944,
  "\u2581Credit": 945,
  "\u2581rangi": 946,
  "\u2581sauti": 947,
  "\u2581again": 948,
  "\u2581ile": 949,
  "\u2581nili": 950,
  "\u2581waka": 951,
  "\u2581All": 952,
  "lo": 953,
  "\u2581Chini": 954,
  "\u258115,": 955,
  "\u2581ever": 956,
  "\u2581servants": 957,
  "\u2581women": 958,
  "\u2581iwe": 959,
  "\u2581states": 960,
  "\u2581kwenda": 961,
  "\u2581mkono": 962,
  "\u2581face": 963,
  "\u2581mumoja": 964,
  "\u2581anapo": 965,
  "\u2581lilikuwa": 966,
  "\u2581vigumu": 967,
  "tumia": 968,
  "\u2581Isaya": 969,
  "\u2581d": 970,
  "\u2581E": 971,
  "po": 972,
  "\u2581ndege": 973,
  "\u2581prayer": 974,
  "\u2581needed": 975,
  "\u2581kimwili": 976,
  "\u2581serikali": 977,
  "\u2581around": 978,
  "\u2581believe": 979,
  "\u2581mwanadamu": 980,
  "\u2581Isaiah": 981,
  "\u2581last": 982,
  "\u2581yenu": 983,
  "\u2581mbaya": 984,
  "\u2581unao": 985,
  "\u2581Mwana": 986,
  "\u2581waki": 987,
  "\u2581jamii": 988,
  "\u2581hisia": 989,
  "\u2581small": 990,
  "\u2581kadiri": 991,
  "\u2581happy": 992,
  "\u2581lives": 993,
  "\u2581language": 994,
  "\u2581blood": 995,
  "\u2581school": 996,
  "\u2581since": 997,
  "\u2581ujumbe": 998,
  "\u2581Your": 999,
  "\u2581thought": 1000,
  "\u25aa": 1001,
  "\u2581ambacho": 1002,
  "\u2581far": 1003,
  "\u258140": 1004,
  "\u2581kamwe": 1005,
  "\u2581hawa": 1006,
  "\u2581matendo": 1007,
  "\u2581Can": 1008,
  "\u258128": 1009,
  "\u2581mawazo": 1010,
  "\u2581understand": 1011,
  "\u2581kuelewa": 1012,
  "\u2581health": 1013,
  "\u2581eyes": 1014,
  "\u2581cannot": 1015,
  "\u2581yourself": 1016,
  "\u2581meetings": 1017,
  "\u258118.": 1018,
  "\u2581picha": 1019,
  "\u2581ancient": 1020,
  "\u2581ask": 1021,
  "\u2581Proverbs": 1022,
  "\u2581kijana": 1023,
  "\u2581relationship": 1024,
  "\u2581uzima": 1025,
  "\u2581Although": 1026,
  "\u2581early": 1027,
  "\u2581Ina": 1028,
  "\u2581matter": 1029,
  "\u2581Hisani": 1030,
  "fumo": 1031,
  "\u2581joy": 1032,
  "\u2581done": 1033,
  "\u2581percent": 1034,
  "\u2581brother": 1035,
  "\u2581system": 1036,
  "\u2581along": 1037,
  "\u2581P": 1038,
  "\u25813,": 1039,
  "\u2581mwingi": 1040,
  "\u2581Son": 1041,
  "\u2581ange": 1042,
  "\u2581pote": 1043,
  "\u2581waaminifu": 1044,
  "\u2581Kuna": 1045,
  "\u2581Jerusalem": 1046,
  "\u2581chake": 1047,
  "\u2581avoid": 1048,
  "\u2581kufuata": 1049,
  "\u2581nina": 1050,
  "\u2581Pictures": 1051,
  "\u2581including": 1052,
  "\u2581Kila": 1053,
  "\u2581support": 1054,
  "\u2581Leo": 1055,
  "\u2581mrefu": 1056,
  "\u2581enjoy": 1057,
  "\u2581money": 1058,
  "\u2581nayo": 1059,
  "\u2581vitabu": 1060,
  "\u2581mafundisho": 1061,
  "\u2581maishani": 1062,
  "\u2581next": 1063,
  "\u2581sin": 1064,
  "\u2581makubwa": 1065,
  "\u2581Let": 1066,
  "\u2581Moses": 1067,
  "\u2581YA": 1068,
  "\u2581certain": 1069,
  "\u2581mamlaka": 1070,
  "ri": 1071,
  "\u2581information": 1072,
  "\u2581Because": 1073,
  "\u2581cause": 1074,
  "\u2581rafiki": 1075,
  "\u2581continue": 1076,
  "\u2581went": 1077,
  "\u2581large": 1078,
  "\u2581Badala": 1079,
  "\u2581bad": 1080,
  "\u2581land": 1081,
  "\u2581answer": 1082,
  "\u2581aliyekuwa": 1083,
  "taka": 1084,
  "\u2581heaven": 1085,
  "\u2581especially": 1086,
  "\u2581Wali": 1087,
  "\u2581Footnote": 1088,
  "\u2581badala": 1089,
  "\u258115:": 1090,
  "\u2581macho": 1091,
  "\u2581utumishi": 1092,
  "\u2581maswali": 1093,
  "\u2581wisdom": 1094,
  "\u2581Ma": 1095,
  "\u2581difficult": 1096,
  "\u2581kina": 1097,
  "ma": 1098,
  "\u2581Consider": 1099,
  "\u2581THE": 1100,
  "\u2581Mfalme": 1101,
  "\u2581States": 1102,
  "\u2581Sasa": 1103,
  "\u2581Ndugu": 1104,
  "\u2581kinacho": 1105,
  "\u2581mzuri": 1106,
  "\u2581ulikuwa": 1107,
  "\u2581Nini": 1108,
  "\u2581kutimiza": 1109,
  "\u2581sura": 1110,
  "\u2581self": 1111,
  "\u2581Kitabu": 1112,
  "\u2581mapema": 1113,
  "\u2581feelings": 1114,
  "\u2581waziwazi": 1115,
  "\u2581kuepuka": 1116,
  "\u2581share": 1117,
  "\u2581fadhili": 1118,
  "\u2581wicked": 1119,
  "\u2581kilicho": 1120,
  "\u2581\u25cf": 1121,
  "....": 1122,
  "\u2581until": 1123,
  "\u258124": 1124,
  "\u2581Tuli": 1125,
  "\u2581reading": 1126,
  "\u2581kidini": 1127,
  "es": 1128,
  "\u2581saw": 1129,
  "ka": 1130,
  "\u2581mwana": 1131,
  "\u2581likely": 1132,
  "\u2581present": 1133,
  "\u2581O": 1134,
  "\u2581zawadi": 1135,
  "\u2581andiko": 1136,
  "\u2581chenye": 1137,
  "\u2581fear": 1138,
  "\u2581inchi": 1139,
  "\u2581Yerusalemu": 1140,
  "\u2581waliokuwa": 1141,
  "\u2581Line": 1142,
  "p": 1143,
  "\u258127": 1144,
  "\u2581Kulingan": 1145,
  "tokana": 1146,
  "li": 1147,
  "\u2581message": 1148,
  "\u2581ngumu": 1149,
  "toa": 1150,
  "zi": 1151,
  "\u2581Wana": 1152,
  "\u2581four": 1153,
  "\u25819,": 1154,
  "\u2581Mtu": 1155,
  "\u2581change": 1156,
  "\u2581ingawa": 1157,
  "\u2581situation": 1158,
  "\u25816,": 1159,
  "\u2581ajabu": 1160,
  "\u2581ujao": 1161,
  "\u2581mataifa": 1162,
  "\u2581soon": 1163,
  "l": 1164,
  "\u2581Israelites": 1165,
  "\u2581wanapaswa": 1166,
  "\u00a9": 1167,
  "pata": 1168,
  "ki": 1169,
  "\u2581talk": 1170,
  "\u2581kind": 1171,
  "\u258119.": 1172,
  "\u2581Does": 1173,
  "\u2581tangu": 1174,
  "\u2581mapenzi": 1175,
  "\u2581mwanamke": 1176,
  "\u2581vi": 1177,
  "\u2581Of": 1178,
  "\u2581People": 1179,
  "\u2581desire": 1180,
  "\u2581kunaweza": 1181,
  "to": 1182,
  "\u2581fine": 1183,
  "\u2581kuacha": 1184,
  "\u2581ma": 1185,
  "\u2581Ulimwengu": 1186,
  "\u2581Be": 1187,
  "\u2581wata": 1188,
  "\u2581counsel": 1189,
  "we": 1190,
  "\u2581makes": 1191,
  "\u25819:": 1192,
  "\u2581usiku": 1193,
  "\u2581Bwana": 1194,
  "\u2581makao": 1195,
  "\u2581received": 1196,
  "\u2581king": 1197,
  "\u2581teaching": 1198,
  "\u2581Waroma": 1199,
  "\u2581magumu": 1200,
  "\u2581H": 1201,
  "\u2581Timothy": 1202,
  "\u2581tuli": 1203,
  "\u2581alifanya": 1204,
  "\u2581point": 1205,
  "U": 1206,
  "\u2581Creator": 1207,
  "\u258120.": 1208,
  "\u2581Ana": 1209,
  "\u258126": 1210,
  "ko": 1211,
  "\u25815,": 1212,
  "\u2581According": 1213,
  "\u2581wise": 1214,
  "\u2581wanted": 1215,
  "\u2581James": 1216,
  "\u2581ndivyo": 1217,
  "\u2581sure": 1218,
  "\u2581mume": 1219,
  "\u2581kwake": 1220,
  "\u2581died": 1221,
  "ona": 1222,
  "\u2581ahadi": 1223,
  "\u2581needs": 1224,
  "\u2581provide": 1225,
  "\u2581account": 1226,
  "\u2581real": 1227,
  "\u2581light": 1228,
  "\u2581members": 1229,
  "\u2581basi": 1230,
  "\u2581moved": 1231,
  "\u2581thus": 1232,
  "\u2581Abraham": 1233,
  "\u2581Tu": 1234,
  "\u2581attention": 1235,
  "\u2581Luke": 1236,
  "\u2581giving": 1237,
  "\u2581Are": 1238,
  "\u2581Australia": 1239,
  "\u258122,": 1240,
  "\u2581Thus": 1241,
  "\u2581yet": 1242,
  "\u2581benefit": 1243,
  "\u2581anointed": 1244,
  "\u2581moto": 1245,
  "\u2581Timotheo": 1246,
  "\u2581yanaweza": 1247,
  "ya": 1248,
  "\u2581knew": 1249,
  "\u2581sense": 1250,
  "\u2581Who": 1251,
  "\u2581turn": 1252,
  "\u2581baptized": 1253,
  "\u2581moyoni": 1254,
  "\u2581Since": 1255,
  "\u2581linasema": 1256,
  "\u2581mean": 1257,
  "\u2581respect": 1258,
  "\u2581safi": 1259,
  "\u2581Greek": 1260,
  "\u2581going": 1261,
  "\u2581serving": 1262,
  "\u2581awe": 1263,
  "le": 1264,
  "\u2581lead": 1265,
  "\u258150": 1266,
  "si": 1267,
  "\u2581Yakobo": 1268,
  "\u2581speak": 1269,
  "\u2581baad": 1270,
  "\u2581brought": 1271,
  "\u2581magonjwa": 1272,
  "\u2581question": 1273,
  "\u2581Fikiria": 1274,
  "\u2581ourselves": 1275,
  "\u2581religion": 1276,
  "hile": 1277,
  "\u2581case": 1278,
  "\u2581Mkristo": 1279,
  "\u2581nor": 1280,
  "\u2581Abrahamu": 1281,
  "\u2581Sheria": 1282,
  "\u2581control": 1283,
  "\u2581night": 1284,
  "\u2581Soma": 1285,
  "\u2581nations": 1286,
  "\u2581dead": 1287,
  "\u2581Box": 1288,
  "\u2581kufikia": 1289,
  "\u2581mu": 1290,
  "\u2581suffering": 1291,
  "\u2581Job": 1292,
  "\u2581thamani": 1293,
  "\u2581group": 1294,
  "\u2581kipindi": 1295,
  "\u2581kikundi": 1296,
  "\u2581kusaidia": 1297,
  "\u2581kupita": 1298,
  "\u2581unabii": 1299,
  "\u2581wanapo": 1300,
  "\u2581wowote": 1301,
  "\u2581kutusaidia": 1302,
  "\u258124:": 1303,
  "\u2581Today": 1304,
  "\u2581taifa": 1305,
  "W": 1306,
  "\u2581Luka": 1307,
  "\u2581baraka": 1308,
  "\u2581law": 1309,
  "\u2581ninyi": 1310,
  "\u2581alipokuwa": 1311,
  "\u2581kula": 1312,
  "\u2581Habari": 1313,
  "\u25814,": 1314,
  "\u2581Those": 1315,
  "\u2581conduct": 1316,
  "\u2581wrong": 1317,
  "\u2581i": 1318,
  "\u2581An": 1319,
  "\u2581mpaka": 1320,
  "\u2581whole": 1321,
  "\u2581country": 1322,
  "\u2581try": 1323,
  "ti": 1324,
  "\u2581msingi": 1325,
  "\u2581righteous": 1326,
  "\u2581Adam": 1327,
  "\u2581receive": 1328,
  "\u2581unapo": 1329,
  "\u258133": 1330,
  "chukua": 1331,
  "\u2581F": 1332,
  "\u2581chembe": 1333,
  "\u2581form": 1334,
  "\u2581saying": 1335,
  "\u2581kutafuta": 1336,
  "\u2581past": 1337,
  "\u2581special": 1338,
  "\u2581bwana": 1339,
  "\u2581mateso": 1340,
  "\u2581heavenly": 1341,
  "\u2581yalikuwa": 1342,
  "\u2581sita": 1343,
  "\u258114,": 1344,
  "\u2581Dur": 1345,
  "\u2581nami": 1346,
  "sababisha": 1347,
  "\u2581Methali": 1348,
  "\u2581Such": 1349,
  "\u2581elders": 1350,
  "\u2581shangwe": 1351,
  "\u2581Wakorintho": 1352,
  "\u2581war": 1353,
  "\u2581N": 1354,
  "\u2581principles": 1355,
  "\u2581follow": 1356,
  "O": 1357,
  "\u2581barua": 1358,
  "\u2581strong": 1359,
  "\u258112,": 1360,
  "\u2581local": 1361,
  "\u2581kufikiri": 1362,
  "\u2581Acts": 1363,
  "\u2581uadilifu": 1364,
  "\u2581Sanduku": 1365,
  "\u2581taking": 1366,
  "\u2581Not": 1367,
  "\u2581feet": 1368,
  "\u2581heshima": 1369,
  "\u2581using": 1370,
  "\u2581jua": 1371,
  "\u2581seen": 1372,
  "\u258116,": 1373,
  "\u2581Yeye": 1374,
  "\u2581Una": 1375,
  "\u2581ukawaida": 1376,
  "\u2581mwenendo": 1377,
  "\u2581York": 1378,
  "\u2581Corinthians": 1379,
  "\u2581alivyo": 1380,
  "\u2581problem": 1381,
  "\u2581mtume": 1382,
  "\u2581ngono": 1383,
  "\u2581allow": 1384,
  "\u2581Mimi": 1385,
  "\u2581Adamu": 1386,
  "\u2581Ndiyo": 1387,
  "\u258131": 1388,
  "\u2581married": 1389,
  "\u2581million": 1390,
  "\u2581trust": 1391,
  "te": 1392,
  "\u2581kulikuwa": 1393,
  "\u2581Ona": 1394,
  "\u2581malaika": 1395,
  "\u2581nothing": 1396,
  "\u2581act": 1397,
  "\u2581de": 1398,
  "\u2581Si": 1399,
  "\u258111,": 1400,
  "\u2581uwongo": 1401,
  "\u2581zako": 1402,
  "\u2581uki": 1403,
  "\u2581similar": 1404,
  "\u2581taught": 1405,
  "\u2581tabia": 1406,
  "\u2581thinking": 1407,
  "\u2581Matendo": 1408,
  "\u2581shauri": 1409,
  "\u2581comes": 1410,
  "\u2581teach": 1411,
  "\u2581utawala": 1412,
  "\u2581ita": 1413,
  "\u258110,": 1414,
  "\u2581Read": 1415,
  "\u2581Ulaya": 1416,
  "\u2581Kuwa": 1417,
  "\u2581Kwanza": 1418,
  "\u2581yali": 1419,
  "\u2581iliyopita": 1420,
  "\u2581once": 1421,
  "\u2581bibi": 1422,
  "\u2581second": 1423,
  "\u2581Watchtower": 1424,
  "\u2581fully": 1425,
  "\u2581sawa": 1426,
  "\u2581taken": 1427,
  "\u2581Muumba": 1428,
  "\u2581vibaya": 1429,
  "\u2581Wengine": 1430,
  "\u2581area": 1431,
  "\u2581kuli": 1432,
  "\u2581simply": 1433,
  "\u2581lolote": 1434,
  "\u2581remain": 1435,
  "\u2581whether": 1436,
  "\u2581kufa": 1437,
  "\u2581sent": 1438,
  "\u2581kumi": 1439,
  "\u2581mfupi": 1440,
  "ruhusu": 1441,
  "la": 1442,
  "\u2581kutambua": 1443,
  "\u2581hapa": 1444,
  "\u2581hizi": 1445,
  "\u2581Shahidi": 1446,
  "\u2581maandishi": 1447,
  "\u2581urafiki": 1448,
  "\u2581Lord": 1449,
  "\u2581kumhusu": 1450,
  "\u2581uamuzi": 1451,
  "\u2581thing": 1452,
  "\u2581mentioned": 1453,
  "Soma": 1454,
  "\u2581Maneno": 1455,
  "\u2581wafuasi": 1456,
  "jaribu": 1457,
  "\u2581involved": 1458,
  "\u2581history": 1459,
  "\u2581milioni": 1460,
  "\u2581amri": 1461,
  "\u2581based": 1462,
  "\u2581mabadiliko": 1463,
  "\u2581Law": 1464,
  "\u2581kindness": 1465,
  "ne": 1466,
  "\u2581La": 1467,
  "\u2581Romans": 1468,
  "\u2581attitude": 1469,
  "\u25812,": 1470,
  "\u2581gives": 1471,
  "\u2581months": 1472,
  "\u2581physical": 1473,
  "\u2581hawaku": 1474,
  "\u258121.": 1475,
  "\u2581kutenda": 1476,
  "\u2581individuals": 1477,
  "espite": 1478,
  "\u2581Mexico": 1479,
  "\u2581kali": 1480,
  "\u2581Baadaye": 1481,
  "\u2581mkuu": 1482,
  "\u2581hufanya": 1483,
  "\u2581ufalme": 1484,
  "\u2581gari": 1485,
  "\u2581maamuzi": 1486,
  "\u2581started": 1487,
  "\u2581vyenye": 1488,
  "\u2581Jews": 1489,
  "\u2581Joseph": 1490,
  "\u2581kuchunguza": 1491,
  "\u2581Uingereza": 1492,
  "\u2581Now": 1493,
  "\u2581Ufunuo": 1494,
  "\u25817,": 1495,
  "\u2581pili": 1496,
  "\u2581R": 1497,
  "\u2581uzito": 1498,
  "\u2581magazine": 1499,
  "\u2581100": 1500,
  "\u2581lost": 1501,
  "\u2581viumbe": 1502,
  "\u2581jitihada": 1503,
  "\u2581vilivyo": 1504,
  "\u2581mali": 1505,
  "\u2581pray": 1506,
  "tambua": 1507,
  "\u2581common": 1508,
  "\u2581here": 1509,
  "mu": 1510,
  "\u258132": 1511,
  "\u2581Revelation": 1512,
  "\u2581prophet": 1513,
  "\u2581Ayubu": 1514,
  "\u2581mahitaji": 1515,
  "\u2581shows": 1516,
  "\u2581Daniel": 1517,
  "\u2581evidence": 1518,
  "\u2581happiness": 1519,
  "\u2581mfalme": 1520,
  "\u2581sikuzote": 1521,
  "\u2581G": 1522,
  "\u2581Basi": 1523,
  "\u2581Gazeti": 1524,
  "\u2581miles": 1525,
  "\u2581works": 1526,
  "\u2581mwaminifu": 1527,
  "\u2581joto": 1528,
  "\u2581kuelekea": 1529,
  "\u2581uhakika": 1530,
  "\u2581Kutoka": 1531,
  "endelea": 1532,
  "\u2581kum": 1533,
  "\u2581tunapo": 1534,
  "\u2581loved": 1535,
  "\u2581Mwanzo": 1536,
  "\u2581nation": 1537,
  "\u2581interest": 1538,
  "\u2581letu": 1539,
  "lipokuwa": 1540,
  "\u2581perfect": 1541,
  "\u2581tell": 1542,
  "\u2581kusali": 1543,
  "\u2581qualities": 1544,
  "\u2581clear": 1545,
  "\u2581Solomon": 1546,
  "\u2581alionyesha": 1547,
  "\u2581miezi": 1548,
  "\u2581within": 1549,
  "\u2581Roma": 1550,
  "\u2581wawe": 1551,
  "\u2581uhuru": 1552,
  "ke": 1553,
  "us": 1554,
  "\u2581friend": 1555,
  "\u2581less": 1556,
  "\u2581uhitaji": 1557,
  "\u2581followers": 1558,
  "\u2581heard": 1559,
  "\u2581lime": 1560,
  "\u2581material": 1561,
  "ye": 1562,
  "\u2581kuanza": 1563,
  "\u2581mtazamo": 1564,
  "\u2581vyote": 1565,
  "\u2581Life": 1566,
  "\u2581katikati": 1567,
  "\u2581kamili": 1568,
  "tu": 1569,
  "\u2581zangu": 1570,
  "\u2581uaminifu": 1571,
  "\u2581peke": 1572,
  "\u2581provided": 1573,
  "\u2581mwezi": 1574,
  "\u2581zime": 1575,
  "\u2581already": 1576,
  "\u2581Would": 1577,
  "\u2581usio": 1578,
  "\u2581Hu": 1579,
  "\u2581according": 1580,
  "\u2581truly": 1581,
  "\u2581leave": 1582,
  "\u2581five": 1583,
  "Read": 1584,
  "\u2581ago": 1585,
  "penda": 1586,
  "\u2581Isitoshe": 1587,
  "\u2581kuzungumza": 1588,
  "ongozwa": 1589,
  "\u2581shule": 1590,
  "\u2581idadi": 1591,
  "\u2581ndogo": 1592,
  "\u2581kile": 1593,
  "\u2581Genesis": 1594,
  "\u2581Kazi": 1595,
  "\u2581Jinsi": 1596,
  "\u2581kuto": 1597,
  "\u2581sahihi": 1598,
  "\u2581lived": 1599,
  "\u2581kufikiria": 1600,
  "\u2581countries": 1601,
  "\u2581ndi": 1602,
  "\u2581Watoto": 1603,
  "\u2581mwanamume": 1604,
  "\u2581matters": 1605,
  "\u2581named": 1606,
  "\u2581\u25a1": 1607,
  "\u258118:": 1608,
  "\u2581Nyakati": 1609,
  "\u2581Their": 1610,
  "\u2581kimoja": 1611,
  "\u258129": 1612,
  "\u2581public": 1613,
  "\u2581temple": 1614,
  "\u2581nafsi": 1615,
  "\u2581vichapo": 1616,
  "\u2581hakuwa": 1617,
  "Kwa": 1618,
  "\u2581chochote": 1619,
  "\u2581nime": 1620,
  "\u2581biashara": 1621,
  "\u2581Rather": 1622,
  "\u2581meaning": 1623,
  "\u2581safari": 1624,
  "\u2581L": 1625,
  "\u2581Maria": 1626,
  "\u2581halisi": 1627,
  "\u2581hasira": 1628,
  "\u2581longer": 1629,
  "\u2581born": 1630,
  "\u2581several": 1631,
  "\u2581serious": 1632,
  "\u2581Awake": 1633,
  "\u2581Wazazi": 1634,
  "\u2581wonderful": 1635,
  "\u2581Will": 1636,
  "\u258123.": 1637,
  "\u2581natural": 1638,
  "\u2581kui": 1639,
  "\u2581anyone": 1640,
  "\u2581maadili": 1641,
  "\u2581pendeleo": 1642,
  "\u2581effort": 1643,
  "\u2581sisters": 1644,
  "\u2581bahari": 1645,
  "\u2581strength": 1646,
  "\u2581certainly": 1647,
  "\u2581mashauri": 1648,
  "\u2581written": 1649,
  "\u2581kondoo": 1650,
  "\u2581kutosha": 1651,
  "\u2581maendeleo": 1652,
  "\u2581sons": 1653,
  "\u2581makosa": 1654,
  "\u2581uka": 1655,
  "\u2581Nina": 1656,
  "\u2581ki": 1657,
  "\u2581mitume": 1658,
  "\u2581deep": 1659,
  "\u2581everlasting": 1660,
  "\u2581explains": 1661,
  "\u2581issue": 1662,
  "\u2581isiyo": 1663,
  "\u2581return": 1664,
  "\u2581Mary": 1665,
  "\u2581perhaps": 1666,
  "\u2581awali": 1667,
  "\u2581Afrika": 1668,
  "\u2581visit": 1669,
  "\u2581Naam": 1670,
  "\u2581kingdom": 1671,
  "ers": 1672,
  "\u2581mwenzi": 1673,
  "\u2581kuchukua": 1674,
  "\u2581Roman": 1675,
  "\u2581call": 1676,
  "\u2581further": 1677,
  "\u2581rather": 1678,
  "ishi": 1679,
  "\u258119,": 1680,
  "\u2581ambako": 1681,
  "\u2581mimea": 1682,
  "\u2581older": 1683,
  "\u2581linaweza": 1684,
  "\u2581wange": 1685,
  "\u2581Did": 1686,
  "\u2581kutokeza": 1687,
  "\u2581sea": 1688,
  "\u258137": 1689,
  "\u2581animals": 1690,
  "\u2581showed": 1691,
  "\u2581anything": 1692,
  "\u2581report": 1693,
  "\u2581mwongozo": 1694,
  "\u258117,": 1695,
  "\u2581government": 1696,
  "ic": 1697,
  "\u2581above": 1698,
  "\u2581Kigiriki": 1699,
  "\u258113,": 1700,
  "\u2581hotuba": 1701,
  "\u2581spiritually": 1702,
  "jua": 1703,
  "ro": 1704,
  "or": 1705,
  "\u2581NA": 1706,
  "\u2581km": 1707,
  "\u2581mema": 1708,
  "\u258124.": 1709,
  "\u2581maumivu": 1710,
  "\u2581Devil": 1711,
  "\u2581Vijana": 1712,
  "\u2581efforts": 1713,
  "\u2581kujenga": 1714,
  "ra": 1715,
  "\u2581alone": 1716,
  "\u258122.": 1717,
  "\u2581nabii": 1718,
  "\u2581nje": 1719,
  "\u2581reports": 1720,
  "\u2581jeuri": 1721,
  "\u2581accept": 1722,
  "\u2581divine": 1723,
  "\u2581pages": 1724,
  "\u2581die": 1725,
  "\u2581matunda": 1726,
  "\u2581resurrection": 1727,
  "\u2581greater": 1728,
  "\u2581false": 1729,
  "\u2581published": 1730,
  "\u2581washiriki": 1731,
  "\u2581barabara": 1732,
  "yo": 1733,
  "\u2581changed": 1734,
  "\u2581Still": 1735,
  "\u2581kept": 1736,
  "\u2581comfort": 1737,
  "\u2581head": 1738,
  "\u2581inspired": 1739,
  "\u2581vina": 1740,
  "\u2581Mark": 1741,
  "\u2581vingi": 1742,
  "\u2581zinaweza": 1743,
  "\u2581rule": 1744,
  "\u2581uchunguzi": 1745,
  "\u2581Waebrania": 1746,
  "\u2581everything": 1747,
  "\u2581modern": 1748,
  "\u2581effect": 1749,
  "\u2581mazoezi": 1750,
  "T": 1751,
  "an": 1752,
  "\u2581binti": 1753,
  "no": 1754,
  "\u2581Hebrew": 1755,
  "\u2581coming": 1756,
  "\u2581gift": 1757,
  "\u2581powerful": 1758,
  "\u2581sacrifice": 1759,
  "\u2581sister": 1760,
  "\u2581enough": 1761,
  "\u2581Miaka": 1762,
  "\u2581explained": 1763,
  "\u2581ule": 1764,
  "\u2581Society": 1765,
  "\u2581slave": 1766,
  "\u2581Mama": 1767,
  "\u2581kili": 1768,
  "\u2581held": 1769,
  "\u2581kupendeza": 1770,
  "\u2581forever": 1771,
  "\u2581elimu": 1772,
  "\u2581six": 1773,
  "\u2581sheep": 1774,
  "\u2581Mtume": 1775,
  "\u2581open": 1776,
  "\u2581ha": 1777,
  "\u2581viwango": 1778,
  "chunguza": 1779,
  "\u2581circumstances": 1780,
  "\u2581waovu": 1781,
  "\u2581understanding": 1782,
  "\u2581Like": 1783,
  "\u2581kutu": 1784,
  "\u2581kuzuia": 1785,
  "\u2581considered": 1786,
  "\u2581V": 1787,
  "\u2581Wale": 1788,
  "\u2581kufundisha": 1789,
  "\u2581stand": 1790,
  "\u258160": 1791,
  "\u2581Indeed": 1792,
  "\u2581got": 1793,
  "hitaji": 1794,
  "\u2581helps": 1795,
  "\u2581church": 1796,
  "\u2581Yosefu": 1797,
  "\u2581dhabihu": 1798,
  "\u2581mifano": 1799,
  "\u2581seem": 1800,
  "\u2581ukweli": 1801,
  "\u2581Amkeni": 1802,
  "\u2581Instead": 1803,
  "\u2581hewa": 1804,
  "\u2581kukubali": 1805,
  "\u2581hours": 1806,
  "\u2581kana": 1807,
  "\u2581value": 1808,
  "\u2581deal": 1809,
  "\u2581hands": 1810,
  "\u2581hekalu": 1811,
  "\u2581apostles": 1812,
  "\u2581tuta": 1813,
  "\u2581juma": 1814,
  "\u2581Ki": 1815,
  "\u2581move": 1816,
  "hidi": 1817,
  "\u2581IN": 1818,
  "\u2581affect": 1819,
  "\u2581led": 1820,
  "\u2581mioyo": 1821,
  "\u2581miti": 1822,
  "\u2581saba": 1823,
  "\u2581meeting": 1824,
  "\u2581stated": 1825,
  "\u2581vinavyo": 1826,
  "\u2581gain": 1827,
  "\u2581historia": 1828,
  "\u2581mji": 1829,
  "\u2581standards": 1830,
  "\u2581text": 1831,
  "\u2581walipo": 1832,
  "\u2581continued": 1833,
  "\u2581ilivyo": 1834,
  "\u2581righteousness": 1835,
  "\u2581described": 1836,
  "\u2581don": 1837,
  "on": 1838,
  "\u2581Hali": 1839,
  "\u2581Mu": 1840,
  "\u2581answers": 1841,
  "\u2581various": 1842,
  "vi": 1843,
  "\u2581doubt": 1844,
  "\u2581source": 1845,
  "lmost": 1846,
  "\u2581London": 1847,
  "\u258118,": 1848,
  "\u2581Ibilisi": 1849,
  "wenye": 1850,
  "\u2581Witness": 1851,
  "\u2581available": 1852,
  "\u2581please": 1853,
  "\u2581vifaa": 1854,
  "\u2581sanamu": 1855,
  "vyo": 1856,
  "\u2581itself": 1857,
  "You": 1858,
  "\u2581imitate": 1859,
  "\u2581advice": 1860,
  "\u2581easy": 1861,
  "\u258115]": 1862,
  "\u2581ability": 1863,
  "\u2581makutaniko": 1864,
  "\u2581alitumia": 1865,
  "\u2581promise": 1866,
  "\u2581speaking": 1867,
  "\u2581disease": 1868,
  "\u2581muziki": 1869,
  "\u2581role": 1870,
  "za": 1871,
  "\u2581funzo": 1872,
  "\u2581India": 1873,
  "\u2581asiye": 1874,
  "\u2581Hiyo": 1875,
  "\u2581Hence": 1876,
  "\u2581ten": 1877,
  "\u2581uangalifu": 1878,
  "\u2581daraka": 1879,
  "\u2581fikira": 1880,
  "\u2581single": 1881,
  "\u2581Most": 1882,
  "\u2581un": 1883,
  "\u2581Misri": 1884,
  "\u2581vingine": 1885,
  "\u2581congregations": 1886,
  "\u2581pain": 1887,
  "\u2581asema": 1888,
  "\u2581hutumia": 1889,
  "\u2581therefore": 1890,
  "\u2581promises": 1891,
  "\u2581remember": 1892,
  "\u2581See": 1893,
  "\u2581events": 1894,
  "\u2581regarding": 1895,
  "\u2581wafanyakazi": 1896,
  "D": 1897,
  "\u2581activities": 1898,
  "\u258120,": 1899,
  "\u258123]": 1900,
  "\u2581Hakuna": 1901,
  "\u2581opportunity": 1902,
  "\u2581prayers": 1903,
  "\u258170": 1904,
  "\u2581prophecy": 1905,
  "\u2581tawi": 1906,
  "\u2581maelezo": 1907,
  "\u2581Noa": 1908,
  "\u2581period": 1909,
  "\u2581Tower": 1910,
  "\u2581grow": 1911,
  "P": 1912,
  "\u2581served": 1913,
  "itwa": 1914,
  "\u2581muji": 1915,
  "\u2581tree": 1916,
  "\u2581ujasiri": 1917,
  "patwa": 1918,
  "\u2581ishara": 1919,
  "\u2581feza": 1920,
  "\u2581hear": 1921,
  "\u2581inaonyesha": 1922,
  "\u258117]": 1923,
  "\u2581Jumb": 1924,
  "\u2581Maisha": 1925,
  "\u2581Sulemani": 1926,
  "\u2581usi": 1927,
  "\u2581wasiwasi": 1928,
  "\u2581Wengi": 1929,
  "\u2581decision": 1930,
  "\u2581Andiko": 1931,
  "\u2581examples": 1932,
  "\u2581hold": 1933,
  "\u2581instance": 1934,
  "\u258125.": 1935,
  "ness": 1936,
  "k": 1937,
  "\u2581iko": 1938,
  "\u2581Or": 1939,
  "\u2581authority": 1940,
  "\u2581kuji": 1941,
  "\u2581least": 1942,
  "\u2581urahisi": 1943,
  "\u2581poor": 1944,
  "\u2581thousands": 1945,
  "\u2581mdogo": 1946,
  "\u2581vital": 1947,
  "\u2581baridi": 1948,
  "\u2581lako": 1949,
  "\u2581students": 1950,
  "\u2581Asia": 1951,
  "\u2581English": 1952,
  "\u2581Hebrews": 1953,
  "\u2581mikono": 1954,
  "\u2581earlier": 1955,
  "\u2581Ujerumani": 1956,
  "\u2581mazingira": 1957,
  "en": 1958,
  "\u2581First": 1959,
  "st": 1960,
  "\u2581utukufu": 1961,
  "ve": 1962,
  "\u2581reach": 1963,
  "\u2581couple": 1964,
  "\u2581labda": 1965,
  "\u2581pioneer": 1966,
  "\u2581Noah": 1967,
  "\u2581kanisa": 1968,
  "\u2581branch": 1969,
  "\u2581half": 1970,
  "\u2581kumtumikia": 1971,
  "\u2581Hawa": 1972,
  "\u2581spoke": 1973,
  "\u2581build": 1974,
  "\u2581offer": 1975,
  "\u2581Vita": 1976,
  "\u2581include": 1977,
  ",...": 1978,
  "\u2581True": 1979,
  "\u2581birth": 1980,
  "\u2581organization": 1981,
  "\u2581samaki": 1982,
  "\u2581kwetu": 1983,
  "\u2581udongo": 1984,
  "\u2581working": 1985,
  "\u2581tafsiri": 1986,
  "\u2581shall": 1987,
  "\u2581sun": 1988,
  "z": 1989,
  "\u2581mutoto": 1990,
  "\u2581soul": 1991,
  "\u2581Alisema": 1992,
  "\u2581kibinafsi": 1993,
  "\u2581worldwide": 1994,
  "\u2581violence": 1995,
  "\u2581yasiyo": 1996,
  "\u2581clean": 1997,
  "\u2581job": 1998,
  "\u2581maskini": 1999,
  "\u2581places": 2000,
  "\u2581Samuel": 2001,
  "\u2581mwanzoni": 2002,
  "\u2581alitoa": 2003,
  "\u2581nakala": 2004,
  "\u2581Jewish": 2005,
  "\u2581Pili": 2006,
  "\u2581influence": 2007,
  "\u2581loyal": 2008,
  "\u2581zilikuwa": 2009,
  "\u2581simu": 2010,
  "\u2581books": 2011,
  "\u2581heavens": 2012,
  "\u2581huruma": 2013,
  "likuwa": 2014,
  "zungumzia": 2015,
  "\u2581maintain": 2016,
  "\u2581nawe": 2017,
  "\u2581tukiwa": 2018,
  "\u2581uwe": 2019,
  "\u2581stay": 2020,
  "mo": 2021,
  "\u2581Danieli": 2022,
  "\u2581Kati": 2023,
  "\u2581decisions": 2024,
  "\u2581Njia": 2025,
  "\u2581Watch": 2026,
  "\u2581apply": 2027,
  "\u2581created": 2028,
  "\u2581kutengeneza": 2029,
  "\u2581met": 2030,
  "\u2581May": 2031,
  "\u2581jeshi": 2032,
  "\u2581zaburi": 2033,
  "\u2581confidence": 2034,
  "pa": 2035,
  "\u2581listen": 2036,
  "\u2581Hall": 2037,
  "\u2581millions": 2038,
  "\u2581preach": 2039,
  "\u2581zambi": 2040,
  "acha": 2041,
  "B": 2042,
  "\u2581eat": 2043,
  "\u2581moral": 2044,
  "\u2581usually": 2045,
  "\u2581aliona": 2046,
  "\u2581centuries": 2047,
  "\u2581complete": 2048,
  "\u2581else": 2049,
  "\u2581changes": 2050,
  "\u2581whose": 2051,
  "\u2581PAGE": 2052,
  "\u2581kutembea": 2053,
  "\u2581develop": 2054,
  "\u2581masomo": 2055,
  "\u2581willing": 2056,
  "\u2581yame": 2057,
  "\u2581daughter": 2058,
  "\u2581walk": 2059,
  "KURASA": 2060,
  "\u2581Yeremia": 2061,
  "\u2581busara": 2062,
  "\u2581Familia": 2063,
  "Mungu": 2064,
  "\u2581myself": 2065,
  "\u2581general": 2066,
  "\u2581rest": 2067,
  "\u2581tried": 2068,
  "\u2581actually": 2069,
  "\u2581hamu": 2070,
  "\u2581start": 2071,
  "\u2581kuandika": 2072,
  "\u2581thoughts": 2073,
  "\u2581Scriptural": 2074,
  "\u2581Yuda": 2075,
  "\u2581activity": 2076,
  "God": 2077,
  "\u2581Jeremiah": 2078,
  "\u2581prove": 2079,
  "\u2581Ask": 2080,
  "\u2581honor": 2081,
  "\u2581nikiwa": 2082,
  "\u2581seems": 2083,
  "\u2581Just": 2084,
  "\u2581wanasema": 2085,
  "\u2581happened": 2086,
  "\u2581kudumisha": 2087,
  "\u2581ukosefu": 2088,
  "\u2581learning": 2089,
  "sababishwa": 2090,
  "\u2581Kiebrania": 2091,
  "\u2581draw": 2092,
  "\u2581utendaji": 2093,
  "\u2581About": 2094,
  "\u2581Alikuwa": 2095,
  "\u2581desturi": 2096,
  "\u2581Africa": 2097,
  "\u2581Muda": 2098,
  "\u2581express": 2099,
  "\u2581kuhusiana": 2100,
  "\u2581anayeitwa": 2101,
  "\u2581privilege": 2102,
  "\u2581stop": 2103,
  "\u2581takes": 2104,
  "is": 2105,
  "\u2581blessing": 2106,
  "\u2581direction": 2107,
  "\u2581teachings": 2108,
  "\u2581mti": 2109,
  "\u2581everyone": 2110,
  "\u2581kilometa": 2111,
  "\u2581recorded": 2112,
  "\u25817]": 2113,
  "\u2581alianza": 2114,
  "\u2581meli": 2115,
  "\u2581office": 2116,
  "\u2581pressure": 2117,
  "\u2581Catholic": 2118,
  "\u2581accepted": 2119,
  "\u2581iki": 2120,
  "weka": 2121,
  "\u2581wenzi": 2122,
  "\u2581meet": 2123,
  "less": 2124,
  "\u2581mate": 2125,
  "\u2581ofisi": 2126,
  "\u2581hearts": 2127,
  "\u2581swali": 2128,
  "Ni": 2129,
  "\u2581Another": 2130,
  "\u2581Tunapo": 2131,
  "\u2581letter": 2132,
  "\u2581witness": 2133,
  "\u2581Amerika": 2134,
  "\u2581proved": 2135,
  "\u2581ukiwa": 2136,
  "jifunza": 2137,
  "\u2581mawili": 2138,
  "\u2581decided": 2139,
  "\u2581lingine": 2140,
  "\u2581appreciate": 2141,
  "\u2581articles": 2142,
  "\u2581lita": 2143,
  "\u2581w": 2144,
  "\u2581wants": 2145,
  "leta": 2146,
  "\u2581field": 2147,
  "\u2581areas": 2148,
  "\u2581matukio": 2149,
  "\u2581short": 2150,
  "\u2581Vivyo": 2151,
  "\u2581kukusaidia": 2152,
  "\u2581kunywa": 2153,
  "\u2581blessings": 2154,
  "\u2581wapi": 2155,
  "\u2581Have": 2156,
  "\u2581Later": 2157,
  "\u2581beautiful": 2158,
  "\u2581mawe": 2159,
  "anza": 2160,
  "\u2581families": 2161,
  "\u2581maelfu": 2162,
  "\u2581kumu": 2163,
  "\u2581kukabiliana": 2164,
  "\u2581daily": 2165,
  "\u2581languages": 2166,
  "\u2581urefu": 2167,
  "Jehovah": 2168,
  "\u2581mupaka": 2169,
  "\u2581carry": 2170,
  "\u2581side": 2171,
  "\u2581BWANA": 2172,
  "\u2581kupatana": 2173,
  "\u2581appropriate": 2174,
  "\u2581line": 2175,
  "\u2581vilevile": 2176,
  "\u2581kupunguza": 2177,
  "fuata": 2178,
  "\u2581kinasema": 2179,
  "\u2581kuingia": 2180,
  "\u2581Upendo": 2181,
  "\u2581caused": 2182,
  "\u2581Ya": 2183,
  "\u2581subject": 2184,
  "\u2581kaskazini": 2185,
  "\u2581luga": 2186,
  "\u2581results": 2187,
  "\u2581kwangu": 2188,
  "\u2581lao": 2189,
  "\u2581Baad": 2190,
  "\u2581miguu": 2191,
  "\u2581Great": 2192,
  "\u2581kukosa": 2193,
  "\u2581alijua": 2194,
  "\u2581determined": 2195,
  "\u2581kuku": 2196,
  "\u2581building": 2197,
  "\u2581kosa": 2198,
  "\u2581kutii": 2199,
  "\u2581position": 2200,
  "\u2581sexual": 2201,
  "onekana": 2202,
  "\u2581South": 2203,
  "\u2581protect": 2204,
  "\u2581unaofaa": 2205,
  "\u258134": 2206,
  "\u2581Mnara": 2207,
  "\u2581class": 2208,
  "\u2581write": 2209,
  "\u2581Bahari": 2210,
  "\u2581Sisi": 2211,
  "\u2581experienced": 2212,
  "\u2581lands": 2213,
  "tokeza": 2214,
  "\u2581ngozi": 2215,
  "\u2581wakfu": 2216,
  "tegemea": 2217,
  "\u2581Eve": 2218,
  "\u2581addition": 2219,
  "\u2581miongo": 2220,
  "\u2581Egypt": 2221,
  "\u2581Mwaka": 2222,
  "\u2581address": 2223,
  "\u2581hukumu": 2224,
  "\u2581'?": 2225,
  "\u2581kwao": 2226,
  "\u2581wagonjwa": 2227,
  "\u2581Samweli": 2228,
  "\u2581kuvumilia": 2229,
  "\u2581parts": 2230,
  "\u2581regard": 2231,
  "\u2581seven": 2232,
  "\u2581clearly": 2233,
  "\u2581nyota": 2234,
  "\u2581reasons": 2235,
  "\u2581rich": 2236,
  "\u2581zile": 2237,
  "\u2581kusikia": 2238,
  "\u2581mvua": 2239,
  "\u2581offered": 2240,
  "\u2581sometimes": 2241,
  "\u2581unge": 2242,
  "\u2581ufufuo": 2243,
  "ta": 2244,
  "\u2581contact": 2245,
  "\u2581seek": 2246,
  "\u2581mchanga": 2247,
  "\u2581kutumiwa": 2248,
  "\u2581regularly": 2249,
  "\u2581tuwe": 2250,
  "\u2581huzuni": 2251,
  "\u2581wenzake": 2252,
  "\u2581medical": 2253,
  "\u2581meta": 2254,
  "\u2581concern": 2255,
  "\u2581training": 2256,
  "\u2581behind": 2257,
  "\u2581practical": 2258,
  "\u258125]": 2259,
  "\u2581mojawapo": 2260,
  "\u2581wenu": 2261,
  "\u2581force": 2262,
  "\u2581glory": 2263,
  "\u2581helping": 2264,
  "\u2581majaribu": 2265,
  "\u2581imara": 2266,
  "\u2581unyenyekevu": 2267,
  "\u2581vyombo": 2268,
  "\u2581chache": 2269,
  "\u2581miradi": 2270,
  "\u2581Makala": 2271,
  "\u2581angels": 2272,
  "\u2581provides": 2273,
  "\u2581suffer": 2274,
  "\u2581throughout": 2275,
  "Ona": 2276,
  "pendezwa": 2277,
  "\u2581mbinu": 2278,
  "zo": 2279,
  "\u2581nika": 2280,
  "\u2581Kuhusu": 2281,
  "\u2581choose": 2282,
  "\u2581kuta": 2283,
  "\u2581shown": 2284,
  "\u2581vili": 2285,
  "\u2581entire": 2286,
  "\u2581Europe": 2287,
  "\u2581appreciation": 2288,
  "\u258126]": 2289,
  "\u2581More": 2290,
  "\u2581tume": 2291,
  "\u2581matibabu": 2292,
  "org": 2293,
  "\u2581regular": 2294,
  "\u2581precious": 2295,
  "fikia": 2296,
  "\u2581nuru": 2297,
  "\u2581wageni": 2298,
  "\u2581week": 2299,
  "\u2581kukumbuka": 2300,
  "\u2581michezo": 2301,
  "\u2581shukrani": 2302,
  "husu": 2303,
  "\u2581believers": 2304,
  "\u2581species": 2305,
  "ng": 2306,
  "\u2581realize": 2307,
  "\u2581kuvutia": 2308,
  "\u2581Anasema": 2309,
  "\u2581Before": 2310,
  "\u2581raised": 2311,
  "\u2581Internet": 2312,
  "\u2581forth": 2313,
  "\u2581chapter": 2314,
  "\u2581strengthen": 2315,
  "\u2581uovu": 2316,
  "\u2581makini": 2317,
  "\u2581positive": 2318,
  "jitahidi": 2319,
  "\u2581kuzaliwa": 2320,
  "\u2581quickly": 2321,
  "\u2581appointed": 2322,
  "\u2581attend": 2323,
  "\u2581creation": 2324,
  "\u258129.": 2325,
  "\u2581Moreover": 2326,
  "\u2581accurate": 2327,
  "pe": 2328,
  "\u2581shughuli": 2329,
  "mi": 2330,
  "\u25819]": 2331,
  "\u2581getting": 2332,
  "\u2581Others": 2333,
  "\u2581kuhudhuria": 2334,
  "\u2581morning": 2335,
  "\u2581miwili": 2336,
  "\u2581Young": 2337,
  "\u2581sound": 2338,
  "\u2581mamilioni": 2339,
  "ia": 2340,
  "it": 2341,
  "\u2581encouraged": 2342,
  "ll": 2343,
  "\u2581ground": 2344,
  "\u2581turned": 2345,
  "\u2581studying": 2346,
  "\u2581umoja": 2347,
  "\u2581waamini": 2348,
  "\u2581St": 2349,
  "\u2581exercise": 2350,
  "\u2581returned": 2351,
  "\u2581anataka": 2352,
  "\u2581Shirik": 2353,
  "\u2581nusu": 2354,
  "\u2581rehema": 2355,
  "\u2581worked": 2356,
  "\u2581action": 2357,
  "kwa": 2358,
  "\u2581Kufanya": 2359,
  "\u258124,": 2360,
  "\u2581tunahitaji": 2361,
  "\u2581laws": 2362,
  "\u2581Mlinzi": 2363,
  "\u2581hawana": 2364,
  "\u2581rasmi": 2365,
  "\u2581practice": 2366,
  "\u2581flesh": 2367,
  "\u2581wonder": 2368,
  "See": 2369,
  "\u2581Babiloni": 2370,
  "\u2581conscience": 2371,
  "\u2581ushahidi": 2372,
  "\u2581hesabu": 2373,
  "\u2581neither": 2374,
  "\u2581recent": 2375,
  "\u2581usalama": 2376,
  "\u2581Therefore": 2377,
  "\u2581built": 2378,
  "\u2581Japan": 2379,
  "\u2581knows": 2380,
  "\u2581promised": 2381,
  "enda": 2382,
  "man": 2383,
  "\u258118]": 2384,
  "\u2581condition": 2385,
  "\u2581door": 2386,
  "\u2581baptism": 2387,
  "\u2581judgment": 2388,
  "\u2581psalmist": 2389,
  "\u2581air": 2390,
  "\u2581majibu": 2391,
  "\u2581shuleni": 2392,
  "\u2581simple": 2393,
  "\u2581produce": 2394,
  "\u2581anwani": 2395,
  "\u2581mubaya": 2396,
  "\u2581social": 2397,
  "\u2581prison": 2398,
  "\u2581salama": 2399,
  "\u2581Dr": 2400,
  "\u2581harmony": 2401,
  "\u2581tulikuwa": 2402,
  "\u2581becoming": 2403,
  "\u2581freedom": 2404,
  "\u2581mavazi": 2405,
  "\u2581walifanya": 2406,
  "pita": 2407,
  "\u2581sleep": 2408,
  "\u2581uthibitisho": 2409,
  "\u2581spend": 2410,
  "\u2581integrity": 2411,
  "\u2581mazungumzo": 2412,
  "\u2581Kanisa": 2413,
  "\u2581baharini": 2414,
  "\u2581madhara": 2415,
  "\u2581hawakuwa": 2416,
  "eni": 2417,
  "\u2581kushiriki": 2418,
  "\u2581responsibility": 2419,
  "\u2581War": 2420,
  "\u2581foretold": 2421,
  "\u2581watatu": 2422,
  "\u2581huru": 2423,
  "\u2581anger": 2424,
  "\u2581nasi": 2425,
  "patana": 2426,
  "\u2581Mwishowe": 2427,
  "\u2581indeed": 2428,
  "\u2581wafu": 2429,
  "\u2581obey": 2430,
  "\u2581yanaonyesha": 2431,
  "\u2581viongozi": 2432,
  "f": 2433,
  "ita": 2434,
  "\u2581guidance": 2435,
  "\u2581kusikiliza": 2436,
  "\u2581allowed": 2437,
  "\u2581daktari": 2438,
  "\u2581kubadili": 2439,
  "\u2581kudumu": 2440,
  "\u2581tengenezo": 2441,
  "\u2581conditions": 2442,
  "\u2581former": 2443,
  "\u258128.": 2444,
  "\u2581Uki": 2445,
  "\u2581either": 2446,
  "\u2581evil": 2447,
  "\u2581magari": 2448,
  "\u2581tuki": 2449,
  "\u2581Kweli": 2450,
  "\u2581added": 2451,
  "\u2581akasema": 2452,
  "\u2581enjoyed": 2453,
  "\u2581hususa": 2454,
  "\u2581mwanzo": 2455,
  "ga": 2456,
  "\u2581inge": 2457,
  "\u2581quality": 2458,
  "\u2581angeweza": 2459,
  "\u2581kiwango": 2460,
  "h": 2461,
  "\u2581akawa": 2462,
  "as": 2463,
  "\u2581Times": 2464,
  "\u2581kubatizwa": 2465,
  "tafuta": 2466,
  "\u2581kuchagua": 2467,
  "\u2581kusafiri": 2468,
  "\u2581looking": 2469,
  "\u2581invited": 2470,
  "\u2581nguo": 2471,
  "\u2581Saul": 2472,
  "\u2581actions": 2473,
  "\u2581sins": 2474,
  "\u2581Heb": 2475,
  "\u2581challenge": 2476,
  "\u2581fire": 2477,
  "\u2581mgonjwa": 2478,
  "\u2581City": 2479,
  "\u2581beginning": 2480,
  "\u2581godly": 2481,
  "\u2581state": 2482,
  "cho": 2483,
  "zidi": 2484,
  "\u2581Love": 2485,
  "\u2581Ufaransa": 2486,
  "\u2581interested": 2487,
  "\u2581kufurahia": 2488,
  "\u2581nature": 2489,
  "\u258131.": 2490,
  "\u2581akina": 2491,
  "\u2581benefits": 2492,
  "\u2581fikiria": 2493,
  "\u2581langu": 2494,
  "\u2581mahangaiko": 2495,
  "\u2581majina": 2496,
  "\u2581Sauli": 2497,
  "\u2581kwani": 2498,
  "\u2581milima": 2499,
  "\u2581girl": 2500,
  "\u2581kusini": 2501,
  "\u2581picture": 2502,
  "\u2581risk": 2503,
  "\u2581ransom": 2504,
  "\u2581tells": 2505,
  "\u2581utu": 2506,
  "\u2581Bethel": 2507,
  "\u2581iliyokuwa": 2508,
  "\u2581nne": 2509,
  "\u2581original": 2510,
  "\u2581respond": 2511,
  "\u258110]": 2512,
  "\u2581American": 2513,
  "\u2581newspaper": 2514,
  "\u2581mukubwa": 2515,
  "\u2581kushinda": 2516,
  "\u2581silaha": 2517,
  "\u2581siri": 2518,
  "\u2581Germany": 2519,
  "\u2581lack": 2520,
  "\u2581Perhaps": 2521,
  "\u2581praise": 2522,
  "\u2581arrived": 2523,
  "\u2581kuni": 2524,
  "\u2581kuomba": 2525,
  "\u2581mazoea": 2526,
  "\u2581Tangu": 2527,
  "\u2581kupenda": 2528,
  "\u2581mwanafunzi": 2529,
  "\u2581treatment": 2530,
  "\u2581walimu": 2531,
  "\u2581France": 2532,
  "\u2581kuweka": 2533,
  "\u2581necessary": 2534,
  "\u2581nzima": 2535,
  "\u2581paradiso": 2536,
  "\u2581zi": 2537,
  "furahia": 2538,
  "haribu": 2539,
  "\u2581Wao": 2540,
  "\u2581individual": 2541,
  "\u2581malipo": 2542,
  "\u2581vikundi": 2543,
  "\u2581youths": 2544,
  "\u2581convention": 2545,
  "\u2581literature": 2546,
  "3": 2547,
  "\u2581ungependa": 2548,
  "tumiwa": 2549,
  "\u2581unaonyesha": 2550,
  "\u2581eventually": 2551,
  "\u2581related": 2552,
  "\u2581speech": 2553,
  "\u2581uvutano": 2554,
  "\u2581Us": 2555,
  "\u2581assignment": 2556,
  "\u2581happen": 2557,
  "\u2581paradise": 2558,
  "\u2581walianza": 2559,
  "\u2581education": 2560,
  "\u2581mwanamuke": 2561,
  "\u2581kulala": 2562,
  "\u2581occasion": 2563,
  "\u2581National": 2564,
  "\u2581feeling": 2565,
  "\u2581fish": 2566,
  "\u2581ika": 2567,
  "\u2581record": 2568,
  "\u2581spent": 2569,
  "\u2581majira": 2570,
  "\u2581Soon": 2571,
  "\u2581alipata": 2572,
  "\u2581courage": 2573,
  "\u2581Ijapo": 2574,
  "\u2581Jacob": 2575,
  "\u2581goal": 2576,
  "amini": 2577,
  "\u2581Sea": 2578,
  "\u2581prevent": 2579,
  "\u2581aliwaambia": 2580,
  "\u2581ready": 2581,
  "wi": 2582,
  "\u2581Children": 2583,
  "\u2581beliefs": 2584,
  "\u2581success": 2585,
  "\u2581kuondoa": 2586,
  "\u2581ukoo": 2587,
  "fu": 2588,
  "\u2581kuya": 2589,
  "\u2581Where": 2590,
  "\u2581cheo": 2591,
  "\u2581hawawezi": 2592,
  "\u2581kompyuta": 2593,
  "\u2581lot": 2594,
  "\u2581walking": 2595,
  "mfanya": 2596,
  "\u2581mzee": 2597,
  "kumbuka": 2598,
  "\u2581beyond": 2599,
  "sema": 2600,
  "\u2581linamaanisha": 2601,
  "\u2581husema": 2602,
  "\u2581kurudi": 2603,
  "\u2581kutazama": 2604,
  "\u2581mbegu": 2605,
  "\u2581nyuma": 2606,
  "\u2581pay": 2607,
  "\u2581umbo": 2608,
  "est": 2609,
  "julikana": 2610,
  "\u2581kielelezo": 2611,
  "\u2581maagizo": 2612,
  "\u2581li": 2613,
  "\u2581Imani": 2614,
  "\u2581kusitawisha": 2615,
  "ar": 2616,
  "\u2581jibu": 2617,
  "\u2581wasi": 2618,
  "amua": 2619,
  "\u2581Roho": 2620,
  "\u2581sex": 2621,
  "saidia": 2622,
  "\u2581developed": 2623,
  "\u2581display": 2624,
  "\u2581greatest": 2625,
  "\u2581sign": 2626,
  "\u2581trying": 2627,
  "\u2581video": 2628,
  "\u2581voice": 2629,
  "g": 2630,
  "el": 2631,
  "\u2581bear": 2632,
  "\u2581trees": 2633,
  "\u2581madogo": 2634,
  "\u2581tuko": 2635,
  "\u2581Marko": 2636,
  "\u2581completely": 2637,
  "\u2581term": 2638,
  "\u2581zisizo": 2639,
  "kutana": 2640,
  "\u2581major": 2641,
  "\u2581month": 2642,
  "\u2581prayed": 2643,
  "\u2581revealed": 2644,
  "\u2581showing": 2645,
  "\u2581waabudu": 2646,
  "able": 2647,
  "\u2581expression": 2648,
  "\u2581kupiga": 2649,
  "\u2581covenant": 2650,
  "\u2581vyakula": 2651,
  "\u2581Brother": 2652,
  "\u2581explain": 2653,
  "tenda": 2654,
  "\u2581kuleta": 2655,
  "H": 2656,
  "\u2581Gani": 2657,
  "\u2581tukio": 2658,
  "\u2581Church": 2659,
  "\u2581cases": 2660,
  "\u2581third": 2661,
  "R": 2662,
  "\u2581Kusini": 2663,
  "\u2581kushirikiana": 2664,
  "\u2581sherehe": 2665,
  "kosa": 2666,
  "\u258180": 2667,
  "\u2581hawezi": 2668,
  "\u2581mipango": 2669,
  "\u2581Also": 2670,
  "\u2581earthly": 2671,
  "\u2581car": 2672,
  "\u2581cope": 2673,
  "\u2581kuanzia": 2674,
  "\u2581member": 2675,
  "poteza": 2676,
  "\u2581kisasa": 2677,
  "We": 2678,
  "\u2581wanahitaji": 2679,
  "4": 2680,
  "\u2581masimulizi": 2681,
  "\u2581Acheni": 2682,
  "\u2581anajua": 2683,
  "\u2581maandiko": 2684,
  "G": 2685,
  "\u2581China": 2686,
  "\u2581wazo": 2687,
  "badili": 2688,
  "\u2581destruction": 2689,
  "\u2581followed": 2690,
  "\u2581kwako": 2691,
  "\u2581Keep": 2692,
  "\u2581encourage": 2693,
  "\u2581maulizo": 2694,
  "\u2581music": 2695,
  "\u2581mwalimu": 2696,
  "\u2581seeking": 2697,
  "\u2581uumbaji": 2698,
  "ombe": 2699,
  "\u2581noted": 2700,
  "kazia": 2701,
  "\u2581asubuhi": 2702,
  "\u2581discipline": 2703,
  "di": 2704,
  "\u2581alama": 2705,
  "\u2581energy": 2706,
  "\u2581knowing": 2707,
  "\u2581proper": 2708,
  "\u2581protection": 2709,
  "\u258145": 2710,
  "\u2581Uchunguzi": 2711,
  "\u2581copy": 2712,
  "\u2581expect": 2713,
  "\u2581homes": 2714,
  "\u2581pindi": 2715,
  "\u2581ujenzi": 2716,
  "\u2581fall": 2717,
  "\u2581kuamini": 2718,
  "\u2581personality": 2719,
  "\u2581town": 2720,
  "\u2581trials": 2721,
  "\u2581acts": 2722,
  "\u2581emotional": 2723,
  "\u2581kupokea": 2724,
  "\u2581mgawo": 2725,
  "\u2581Labda": 2726,
  "\u2581deeply": 2727,
  "\u2581dhamiri": 2728,
  "It": 2729,
  "\u2581fruit": 2730,
  "\u2581mashua": 2731,
  "\u2581Nevertheless": 2732,
  "\u2581Though": 2733,
  "\u2581program": 2734,
  "do": 2735,
  "\u2581filled": 2736,
  "\u2581hour": 2737,
  "\u2581oil": 2738,
  "\u2581stress": 2739,
  "\u2581wanaamini": 2740,
  "\u258113]": 2741,
  "\u2581Holy": 2742,
  "\u2581studies": 2743,
  "\u2581wachache": 2744,
  "2": 2745,
  "\u2581begin": 2746,
  "\u2581Rome": 2747,
  "\u2581desires": 2748,
  "\u2581idea": 2749,
  "\u2581publication": 2750,
  "\u2581reported": 2751,
  "\u2581ZA": 2752,
  "\u2581interests": 2753,
  "\u2581wema": 2754,
  "\u2581endure": 2755,
  "\u2581seemed": 2756,
  "\u2581series": 2757,
  "N": 2758,
  "ww": 2759,
  "\u2581carefully": 2760,
  "\u2581groups": 2761,
  "be": 2762,
  "\u2581ardhi": 2763,
  "\u2581eye": 2764,
  "\u2581mental": 2765,
  "\u2581parent": 2766,
  "\u2581wanafanya": 2767,
  "lia": 2768,
  "\u2581Waefeso": 2769,
  "\u2581kuzi": 2770,
  "\u2581zita": 2771,
  "F": 2772,
  "\u2581goals": 2773,
  "\u2581kuiga": 2774,
  "\u2581steps": 2775,
  "\u2581outside": 2776,
  "\u2581wahubiri": 2777,
  "patikana": 2778,
  "\u2581Was": 2779,
  "\u2581missionary": 2780,
  "\u2581Re": 2781,
  "\u2581passed": 2782,
  "\u2581reflect": 2783,
  "\u2581teacher": 2784,
  "\u2581Wanafunzi": 2785,
  "\u2581genuine": 2786,
  "\u2581kumsaidia": 2787,
  "\u2581mupya": 2788,
  "\u258121,": 2789,
  "\u2581Further": 2790,
  "\u2581alive": 2791,
  "\u2581kibali": 2792,
  "\u2581kukaa": 2793,
  "\u2581maarufu": 2794,
  "kaanza": 2795,
  "\u2581included": 2796,
  "\u2581kuongoza": 2797,
  "\u2581programu": 2798,
  "\u2581Mkuu": 2799,
  "\u2581kambi": 2800,
  "\u2581mimba": 2801,
  "ha": 2802,
  "\u258165": 2803,
  "\u2581Ephesians": 2804,
  "\u2581elder": 2805,
  "\u2581kituo": 2806,
  "\u2581kuharibu": 2807,
  "\u2581relief": 2808,
  "\u2581choice": 2809,
  "\u2581kutumika": 2810,
  "\u2581loss": 2811,
  "\u2581traveling": 2812,
  "ongoza": 2813,
  "\u2581basis": 2814,
  "\u2581closer": 2815,
  "\u2581enemies": 2816,
  "\u2581maridadi": 2817,
  "\u258190": 2818,
  "\u2581research": 2819,
  "baki": 2820,
  "\u2581Akiwa": 2821,
  "\u2581kujitahidi": 2822,
  "\u2581kununua": 2823,
  "\u2581kuwafundisha": 2824,
  "kubali": 2825,
  "tokea": 2826,
  "\u2581mwovu": 2827,
  "\u2581Each": 2828,
  "\u2581iwapo": 2829,
  "pokea": 2830,
  "\u2581agano": 2831,
  "\u2581magazeti": 2832,
  "\u2581ripoti": 2833,
  "\u2581room": 2834,
  "he": 2835,
  "\u2581Hispania": 2836,
  "\u2581Huko": 2837,
  "\u2581urithi": 2838,
  "\u2581walivyo": 2839,
  "sikia": 2840,
  "\u2581cut": 2841,
  "\u2581Messiah": 2842,
  "\u2581cities": 2843,
  "\u2581kulevya": 2844,
  "\u2581Wote": 2845,
  "\u2581challenges": 2846,
  "taja": 2847,
  "takuwa": 2848,
  "\u2581divai": 2849,
  "\u2581kusababisha": 2850,
  "\u2581wanasayansi": 2851,
  "\u2581Kabla": 2852,
  "\u2581Kupitia": 2853,
  "\u2581Over": 2854,
  "\u2581realized": 2855,
  "\u2581wingi": 2856,
  "If": 2857,
  "kataa": 2858,
  "\u258130.": 2859,
  "\u2581humble": 2860,
  "\u2581kumaliza": 2861,
  "\u2581observed": 2862,
  "\u2581sote": 2863,
  "eleza": 2864,
  "\u2581hana": 2865,
  "\u2581msiba": 2866,
  "\u2581treat": 2867,
  "\u2581zuri": 2868,
  "\u2581Aki": 2869,
  "\u2581Mwenye": 2870,
  "\u2581mpango": 2871,
  "\u2581umbali": 2872,
  "\u2581assigned": 2873,
  "\u2581behavior": 2874,
  "\u2581ghafula": 2875,
  "\u2581kutafakari": 2876,
  "ted": 2877,
  "\u2581Family": 2878,
  "\u2581painia": 2879,
  "\u258124]": 2880,
  "\u2581Hapana": 2881,
  "\u2581leaders": 2882,
  "\u2581warning": 2883,
  "me": 2884,
  "\u2581Babylon": 2885,
  "\u2581prepared": 2886,
  "\u2581ustadi": 2887,
  "hu": 2888,
  "\u2581TO": 2889,
  "\u2581Wenye": 2890,
  "\u2581aliendelea": 2891,
  "\u2581universe": 2892,
  "zungumza": 2893,
  "\u2581Au": 2894,
  "\u2581Judah": 2895,
  "\u2581faced": 2896,
  "\u2581firm": 2897,
  "\u2581ukubwa": 2898,
  "\u2581Tuta": 2899,
  "\u2581wanaoishi": 2900,
  "Y": 2901,
  "omba": 2902,
  "ry": 2903,
  "\u2581200": 2904,
  "\u2581kuwapa": 2905,
  "\u2581Clearly": 2906,
  "Nili": 2907,
  "\u2581translation": 2908,
  "\u2581chumba": 2909,
  "\u2581favor": 2910,
  "\u00e9": 2911,
  "\u2581key": 2912,
  "\u2581kikamili": 2913,
  "\u2581televisheni": 2914,
  "\u2581inside": 2915,
  "\u2581madaraka": 2916,
  "\u2581test": 2917,
  "\u2581type": 2918,
  "\u2581whatever": 2919,
  "\u2581workers": 2920,
  "\u2581tano": 2921,
  "liendelea": 2922,
  "\u2581Good": 2923,
  "\u2581focus": 2924,
  "Je": 2925,
  "\u2581encouragement": 2926,
  "\u2581justice": 2927,
  "\u2581kuwasiliana": 2928,
  "\u2581process": 2929,
  "\u2581alikufa": 2930,
  "\u2581uko": 2931,
  "\u2581unique": 2932,
  "co": 2933,
  "pate": 2934,
  "\u2581Brooklyn": 2935,
  "\u2581boy": 2936,
  "Do": 2937,
  "\u2581animal": 2938,
  "\u2581forward": 2939,
  "\u2581itakuwa": 2940,
  "\u2581jirani": 2941,
  "\u2581servant": 2942,
  "\u2581specific": 2943,
  "\u2581BIBLIA": 2944,
  "\u2581calls": 2945,
  "\u2581final": 2946,
  "\u2581huohuo": 2947,
  "\u2581immediately": 2948,
  "maanisha": 2949,
  "\u258127.": 2950,
  "\u2581Canada": 2951,
  "\u2581believed": 2952,
  "\u2581hatu": 2953,
  "\u2581imperfect": 2954,
  "\u2581produced": 2955,
  "\u2581scientists": 2956,
  "\u258116]": 2957,
  "\u2581ikawa": 2958,
  "ch": 2959,
  "\u2581Baraza": 2960,
  "\u2581ona": 2961,
  "For": 2962,
  "\u258126.": 2963,
  "\u2581Really": 2964,
  "\u2581salvation": 2965,
  "kuwe": 2966,
  "\u2581mwelekeo": 2967,
  "\u2581umuhimu": 2968,
  "\u2581watakuwa": 2969,
  "\u2581zoea": 2970,
  "\u2581alimwambia": 2971,
  "\u2581brings": 2972,
  "\u2581destroyed": 2973,
  "\u2581sick": 2974,
  "wezesha": 2975,
  "\u2581increase": 2976,
  "\u2581kutokea": 2977,
  "\u2581msichana": 2978,
  "\u2581Tuki": 2979,
  "\u2581uharibifu": 2980,
  "pi": 2981,
  "\u2581Pennsylvania": 2982,
  "\u2581University": 2983,
  "\u2581discovered": 2984,
  "\u2581mwanaume": 2985,
  "jw": 2986,
  "tusaidia": 2987,
  "\u2581fulfillment": 2988,
  "\u2581kucheza": 2989,
  "\u2581uso": 2990,
  "\u2581white": 2991,
  "1": 2992,
  "\u2581patient": 2993,
  "\u2581upepo": 2994,
  "\u2581alitaka": 2995,
  "\u2581blessed": 2996,
  "\u2581population": 2997,
  "\u2581request": 2998,
  "\u2581tarehe": 2999,
  "\u2581crowd": 3000,
  "\u2581political": 3001,
  "\u2581subira": 3002,
  "\u2581wadogo": 3003,
  "\u258121]": 3004,
  "\u2581Kanada": 3005,
  "\u2581arusi": 3006,
  "\u2581play": 3007,
  "\u2581principle": 3008,
  "\u2581kisiwa": 3009,
  "\u2581progress": 3010,
  "\u2581Joshua": 3011,
  "\u2581fundisho": 3012,
  "\u2581growing": 3013,
  "ation": 3014,
  "\u2581approach": 3015,
  "\u2581birds": 3016,
  "\u2581hati": 3017,
  "\u2581killed": 3018,
  "\u2581kulinda": 3019,
  "\u25815]": 3020,
  "\u2581fungu": 3021,
  "\u2581publications": 3022,
  "\u2581Mwezi": 3023,
  "\u2581although": 3024,
  "\u2581eight": 3025,
  "\u2581Her": 3026,
  "\u2581causes": 3027,
  "\u2581suffered": 3028,
  "endelee": 3029,
  "\u2581fedha": 3030,
  "\u2581mutume": 3031,
  "de": 3032,
  "\u2581Should": 3033,
  "\u2581anavyo": 3034,
  "\u2581established": 3035,
  "\u2581usawaziko": 3036,
  "\u2581watumwa": 3037,
  "wafanya": 3038,
  "\u2581Mufalme": 3039,
  "\u2581School": 3040,
  "\u2581bei": 3041,
  "\u2581huonyesha": 3042,
  "\u2581involves": 3043,
  "\u2581kihisia": 3044,
  "\u2581kufunga": 3045,
  "\u2581step": 3046,
  "pewa": 3047,
  "\u2581baby": 3048,
  "\u2581bustani": 3049,
  "\u2581front": 3050,
  "\u2581polisi": 3051,
  "\u2581society": 3052,
  "\u2581weeks": 3053,
  "\u2581El": 3054,
  "\u2581njaa": 3055,
  "\u2581recognize": 3056,
  "Ku": 3057,
  "\u2581mradi": 3058,
  "uala": 3059,
  "\u2581kando": 3060,
  "\u2581kutumikia": 3061,
  "\u2581mashariki": 3062,
  "elewa": 3063,
  "\u2581chanzo": 3064,
  "\u2581doctor": 3065,
  "\u2581inayofaa": 3066,
  "\u2581kuamua": 3067,
  "\u2581kueleza": 3068,
  "\u2581notes": 3069,
  "\u2581watch": 3070,
  "\u2581youth": 3071,
  "Yehova": 3072,
  "\u2581business": 3073,
  "\u2581security": 3074,
  "\u2581Through": 3075,
  "\u2581ahead": 3076,
  "\u2581chumvi": 3077,
  "\u2581lile": 3078,
  "\u2581wakamilifu": 3079,
  "husisha": 3080,
  "\u2581expressed": 3081,
  "\u2581imagine": 3082,
  "\u2581spread": 3083,
  "\u2581upole": 3084,
  "zungumuzia": 3085,
  "\u258128,": 3086,
  "\u2581kuja": 3087,
  "\u2581aware": 3088,
  "\u2581cells": 3089,
  "\u2581examine": 3090,
  "\u2581inapo": 3091,
  "\u2581names": 3092,
  "\u2581big": 3093,
  "\u2581Tofauti": 3094,
  "\u2581illustration": 3095,
  "\u2581mkutano": 3096,
  "\u2581truths": 3097,
  "7": 3098,
  "ion": 3099,
  "\u2581chuma": 3100,
  "\u2581dola": 3101,
  "\u2581late": 3102,
  "\u2581Dakt": 3103,
  "\u2581accounts": 3104,
  "\u2581kujaribu": 3105,
  "toka": 3106,
  "\u2581Intaneti": 3107,
  "\u2581Remember": 3108,
  "\u2581dhahabu": 3109,
  "\u2581hatia": 3110,
  "\u2581kikubwa": 3111,
  "\u2581kufaa": 3112,
  "In": 3113,
  "il": 3114,
  "\u2581Wewe": 3115,
  "\u2581island": 3116,
  "\u2581mbingu": 3117,
  "\u2581shirika": 3118,
  "\u2581upya": 3119,
  "\u2581vime": 3120,
  "go": 3121,
  "quite": 3122,
  "\u2581adui": 3123,
  "\u2581fulfilled": 3124,
  "\u258133.": 3125,
  "\u2581amount": 3126,
  "\u2581eating": 3127,
  "\u2581farasi": 3128,
  "\u2581hiki": 3129,
  "\u2581humo": 3130,
  "\u2581Alipo": 3131,
  "\u2581England": 3132,
  "\u2581Kufikia": 3133,
  "\u2581Ruth": 3134,
  "\u2581basic": 3135,
  "\u2581instead": 3136,
  "\u2581kuongezeka": 3137,
  "\u2581keeping": 3138,
  "shuka": 3139,
  "\u258135.": 3140,
  "\u2581dakika": 3141,
  "\u2581discuss": 3142,
  "\u2581gerezani": 3143,
  "\u2581maua": 3144,
  "ur": 3145,
  "\u2581Injili": 3146,
  "\u2581Kiingereza": 3147,
  "\u2581kuboresha": 3148,
  "\u2581mouth": 3149,
  "\u2581utakuwa": 3150,
  "ling": 3151,
  "\u2581Jina": 3152,
  "\u2581cultivate": 3153,
  "\u2581affected": 3154,
  "\u2581consequences": 3155,
  "\u2581effective": 3156,
  "\u2581nilipokuwa": 3157,
  "\u2581plant": 3158,
  "\u2581tuka": 3159,
  "\u2581Sehemu": 3160,
  "\u2581existence": 3161,
  "\u2581importance": 3162,
  "\u2581kuhakikisha": 3163,
  "\u2581negative": 3164,
  "\u258135": 3165,
  "\u2581adds": 3166,
  "\u2581kiti": 3167,
  "\u2581neighbor": 3168,
  "\u2581priest": 3169,
  "\u2581sacred": 3170,
  "\u2581fight": 3171,
  "\u2581improve": 3172,
  "eneza": 3173,
  "\u2581jaribu": 3174,
  "\u2581wine": 3175,
  "\u2581meant": 3176,
  "\u2581continues": 3177,
  "\u2581musaada": 3178,
  "\u2581popular": 3179,
  "\u2581priests": 3180,
  "\u2581prepare": 3181,
  "\u2581wafanye": 3182,
  "\u2581writer": 3183,
  "ingia": 3184,
  "\u2581Similarly": 3185,
  "\u2581asi": 3186,
  "\u2581appear": 3187,
  "\u2581includes": 3188,
  "\u2581points": 3189,
  "\u2581alcohol": 3190,
  "\u2581mafanikio": 3191,
  "\u2581mbao": 3192,
  "\u2581utafiti": 3193,
  "fanywa": 3194,
  "\u2581kilikuwa": 3195,
  "\u2581road": 3196,
  "\u2581usingizi": 3197,
  "\u2581valuable": 3198,
  "\u2581wenzao": 3199,
  "\u2581Once": 3200,
  "\u2581finally": 3201,
  "\u2581mwishowe": 3202,
  "\u2581pengine": 3203,
  "acheni": 3204,
  "\u2581msimamo": 3205,
  "\u2581visited": 3206,
  "\u2581command": 3207,
  "\u2581contrast": 3208,
  "\u2581verse": 3209,
  "\u2581remained": 3210,
  "hisi": 3211,
  "\u2581easily": 3212,
  "\u2581inayofuata": 3213,
  "\u2581nidhamu": 3214,
  "\u2581woga": 3215,
  "\u2581BY": 3216,
  "\u2581agree": 3217,
  "\u2581linge": 3218,
  "\u2581nazo": 3219,
  "\u2581re": 3220,
  "\u2581Blur": 3221,
  "\u2581Maoni": 3222,
  "\u2581II": 3223,
  "\u2581Japani": 3224,
  "\u2581linaonyesha": 3225,
  "\u2581majengo": 3226,
  "\u2581mzazi": 3227,
  "\u2581niki": 3228,
  "\u2581toleo": 3229,
  "ja": 3230,
  "sha": 3231,
  "\u2581Help": 3232,
  "\u2581Paradiso": 3233,
  "\u2581kusanyiko": 3234,
  "\u2581creatures": 3235,
  "\u2581kujiuliza": 3236,
  "\u2581mitatu": 3237,
  "\u2581nita": 3238,
  "\u2581makali": 3239,
  "\u2581wafalme": 3240,
  "mong": 3241,
  "\u2581Eliya": 3242,
  "\u2581hatuwezi": 3243,
  "kaa": 3244,
  "more": 3245,
  "se": 3246,
  "\u2581angel": 3247,
  "\u2581destroy": 3248,
  "\u2581event": 3249,
  "\u2581kime": 3250,
  "\u2581danger": 3251,
  "\u2581raia": 3252,
  "\u2581Paradise": 3253,
  "\u2581effects": 3254,
  "\u2581Mashariki": 3255,
  "\u2581contains": 3256,
  "\u2581convinced": 3257,
  "\u2581drugs": 3258,
  "\u2581wazima": 3259,
  "tii": 3260,
  "\u2581BIBLE": 3261,
  "\u2581experiences": 3262,
  "\u2581mercy": 3263,
  "\u2581plants": 3264,
  "\u2581wachanga": 3265,
  "\u2581ziki": 3266,
  "jumba": 3267,
  "\u258138": 3268,
  "\u2581mountain": 3269,
  "\u2581particularly": 3270,
  "\u2581presence": 3271,
  "\u2581sacrifices": 3272,
  "\u2581skin": 3273,
  "\u2581wives": 3274,
  "\u2581environment": 3275,
  "\u2581lesson": 3276,
  "\u2581maadui": 3277,
  "\u2581warm": 3278,
  "\u2581across": 3279,
  "\u2581miungu": 3280,
  "\u2581yanayofaa": 3281,
  "tengenezwa": 3282,
  "\u2581Usi": 3283,
  "\u2581kibinadamu": 3284,
  "ce": 3285,
  "ho": 3286,
  "\u2581Hatimaye": 3287,
  "\u2581image": 3288,
  "ba": 3289,
  "\u258136": 3290,
  "\u2581required": 3291,
  "\u2581utajiri": 3292,
  "like": 3293,
  "\u2581Version": 3294,
  "\u2581behalf": 3295,
  "\u2581gold": 3296,
  "\u2581observe": 3297,
  "timiza": 3298,
  "\u2581300": 3299,
  "\u2581Juu": 3300,
  "\u2581drink": 3301,
  "\u2581mzima": 3302,
  "\u2581(1)": 3303,
  "\u2581Urusi": 3304,
  "\u2581evening": 3305,
  "\u2581haikuwa": 3306,
  "\u2581illness": 3307,
  "\u2581majiji": 3308,
  "\u2581spoken": 3309,
  "\u2581story": 3310,
  "\u2581wadudu": 3311,
  "\u2581hundreds": 3312,
  "\u2581wataalamu": 3313,
  "\u2581asking": 3314,
  "\u2581responsible": 3315,
  "\u2581uvumilivu": 3316,
  "\u2581misiba": 3317,
  "\u2581majani": 3318,
  "utume": 3319,
  "\u2581concerning": 3320,
  "\u2581kisiasa": 3321,
  "\u2581missionaries": 3322,
  "\u2581nyinyi": 3323,
  "os": 3324,
  "\u2581Chuo": 3325,
  "\u2581Its": 3326,
  "\u2581conclusion": 3327,
  "\u2581designed": 3328,
  "\u2581kukataa": 3329,
  "\u2581tongue": 3330,
  "funga": 3331,
  "\u2581kings": 3332,
  "chagua": 3333,
  "one": 3334,
  "piga": 3335,
  "\u2581Yoshua": 3336,
  "\u2581global": 3337,
  "\u2581limited": 3338,
  "\u2581main": 3339,
  "\u2581ujumla": 3340,
  "\u25816]": 3341,
  "\u2581box": 3342,
  "\u2581break": 3343,
  "\u2581ng": 3344,
  "\u2581per": 3345,
  "\u2581zingine": 3346,
  "\u2581(2)": 3347,
  "\u2581Gilead": 3348,
  "\u2581active": 3349,
  "\u2581cell": 3350,
  "\u2581train": 3351,
  "\u2581yourselves": 3352,
  "vunja": 3353,
  "\u2581affection": 3354,
  "\u2581growth": 3355,
  "\u2581nyama": 3356,
  "\u2581standing": 3357,
  "\u2581Blabu": 3358,
  "\u2581Two": 3359,
  "\u2581binadamu": 3360,
  "\u2581seeing": 3361,
  "pambana": 3362,
  "tumie": 3363,
  "\u2581Brazili": 3364,
  "\u2581Elijah": 3365,
  "\u2581attended": 3366,
  "\u2581becomes": 3367,
  "\u2581hawata": 3368,
  "\u2581hazina": 3369,
  "\u2581persecution": 3370,
  "\u2581save": 3371,
  "\u2581daima": 3372,
  "\u2581grew": 3373,
  "\u2581kazini": 3374,
  "\u2581particular": 3375,
  "da": 3376,
  "\u2581Only": 3377,
  "\u2581Other": 3378,
  "\u2581Tim": 3379,
  "\u2581abuse": 3380,
  "\u2581date": 3381,
  "\u2581elderly": 3382,
  "\u2581guide": 3383,
  "\u2581kujibu": 3384,
  "\u2581military": 3385,
  "\u2581reasonable": 3386,
  "jiweka": 3387,
  "\u2581500": 3388,
  "\u2581Maswali": 3389,
  "\u2581Mhubiri": 3390,
  "\u2581kemikali": 3391,
  "\u2581lisilo": 3392,
  "\u2581lose": 3393,
  "\u00b7": 3394,
  "\u02b9": 3395,
  "\u25811914": 3396,
  "\u2581Spanish": 3397,
  "\u2581cover": 3398,
  "\u2581dedicated": 3399,
  "\u2581majuma": 3400,
  "\u2581seed": 3401,
  "\u2581teachers": 3402,
  "linganisha": 3403,
  "\u2581bidhaa": 3404,
  "\u2581dangerous": 3405,
  "\u2581jipya": 3406,
  "\u2581uses": 3407,
  "\u2581wide": 3408,
  "ment": 3409,
  "\u2581Betheli": 3410,
  "\u2581Man": 3411,
  "\u2581atakuwa": 3412,
  "\u2581attack": 3413,
  "\u2581mukono": 3414,
  "\u2581umati": 3415,
  "\u2581wokovu": 3416,
  "chochewa": 3417,
  "\u2581extreme": 3418,
  "\u2581Make": 3419,
  "\u2581kutawala": 3420,
  "\u2581lasema": 3421,
  "\u2581normal": 3422,
  "\u2581shamba": 3423,
  "\u2581uasi": 3424,
  "jibu": 3425,
  "\u2581arrangement": 3426,
  "\u2581kingine": 3427,
  "\u2581relative": 3428,
  "ua": 3429,
  "\u2581Mto": 3430,
  "\u2581depression": 3431,
  "\u2581fill": 3432,
  "\u2581grateful": 3433,
  "\u2581values": 3434,
  "\u2581walitumia": 3435,
  "\u25812001": 3436,
  "\u2581August": 3437,
  "\u2581Christianity": 3438,
  "\u2581Kumbuka": 3439,
  "\u2581sanduku": 3440,
  "\u2581search": 3441,
  "Let": 3442,
  "and": 3443,
  "\u2581kuzaa": 3444,
  "\u2581practices": 3445,
  "\u2581yuko": 3446,
  "6": 3447,
  "\u2581Mithali": 3448,
  "\u2581Questions": 3449,
  "\u2581sharing": 3450,
  "ph": 3451,
  "\u2581Mwanzoni": 3452,
  "\u2581mapainia": 3453,
  "\u2581nalo": 3454,
  "\u2581reached": 3455,
  "\u2581ubaguzi": 3456,
  "ca": 3457,
  "\u2581Book": 3458,
  "\u2581chosen": 3459,
  "\u2581forget": 3460,
  "\u2581personally": 3461,
  "\u2581reveal": 3462,
  "\u2581Matokeo": 3463,
  "\u2581alieleza": 3464,
  "\u2581hutoa": 3465,
  "\u2581inavyo": 3466,
  "\u2581machoni": 3467,
  "\u2581resurrected": 3468,
  "ENI": 3469,
  "kuja": 3470,
  "\u2581c": 3471,
  "\u2581carried": 3472,
  "\u2581requires": 3473,
  "\u2581haja": 3474,
  "\u2581kuvunja": 3475,
  "\u2581mashamba": 3476,
  "\u2581minister": 3477,
  "\u2581opened": 3478,
  "\u2581relatives": 3479,
  "\u2581walisema": 3480,
  "Mimi": 3481,
  "ana": 3482,
  "\u2581haiku": 3483,
  "\u2581harm": 3484,
  "\u2581humility": 3485,
  "\u2581madaktari": 3486,
  "He": 3487,
  "karibia": 3488,
  "\u2581Ilikuwa": 3489,
  "\u2581claim": 3490,
  "\u2581response": 3491,
  "onyeshwa": 3492,
  "\u2581Dada": 3493,
  "\u2581OF": 3494,
  "\u2581factors": 3495,
  "\u2581probably": 3496,
  "\u2581visa": 3497,
  "\u2581Finally": 3498,
  "\u2581household": 3499,
  "\u2581issues": 3500,
  "\u2581kundi": 3501,
  "\u2581looked": 3502,
  "\u2581simulizi": 3503,
  "\u2581teaches": 3504,
  "\u2581tribulation": 3505,
  "\u2581worshippers": 3506,
  "8": 3507,
  "all": 3508,
  "\u2581ambamo": 3509,
  "\u2581bread": 3510,
  "\u2581mnyama": 3511,
  "\u2581mstari": 3512,
  "tamani": 3513,
  "\u2581Hivi": 3514,
  "\u2581Ukumbusho": 3515,
  "\u2581dedication": 3516,
  "\u2581forms": 3517,
  "\u2581note": 3518,
  "shi": 3519,
  "\u2581Ecclesiastes": 3520,
  "\u2581Ripoti": 3521,
  "\u2581Well": 3522,
  "\u2581mipaka": 3523,
  "\u2581mwenzake": 3524,
  "\u2581red": 3525,
  "\u2581unity": 3526,
  "\u2581wapate": 3527,
  "\u25811999": 3528,
  "\u2581Tena": 3529,
  "\u2581anaeleza": 3530,
  "\u2581mchana": 3531,
  "\u2581talking": 3532,
  "ge": 3533,
  "\u2581Li": 3534,
  "\u2581kukata": 3535,
  "\u2581sight": 3536,
  "\u2581Me": 3537,
  "\u2581foreign": 3538,
  "\u2581mapya": 3539,
  "\u2581worth": 3540,
  "\u258155": 3541,
  "\u2581July": 3542,
  "\u2581describes": 3543,
  "\u2581remains": 3544,
  "\u2581Without": 3545,
  "\u2581wakawa": 3546,
  "\u258112]": 3547,
  "\u2581KATIKA": 3548,
  "\u2581Wafilipi": 3549,
  "\u2581site": 3550,
  "When": 3551,
  "lazimika": 3552,
  "\u2581attending": 3553,
  "\u2581devotion": 3554,
  "\u2581Italia": 3555,
  "\u2581Readers": 3556,
  "\u2581Wetu": 3557,
  "\u2581hazi": 3558,
  "\u2581kulia": 3559,
  "\u2581matumizi": 3560,
  "\u2581viungo": 3561,
  "\u2581writing": 3562,
  "panga": 3563,
  "\u2581declared": 3564,
  "\u2581surface": 3565,
  "pinga": 3566,
  "wekwa": 3567,
  "\u2581Nchi": 3568,
  "\u2581huona": 3569,
  "\u2581hutumiwa": 3570,
  "\u2581kuhisi": 3571,
  "\u2581mashuhuri": 3572,
  "\u2581sayansi": 3573,
  "\u2581successful": 3574,
  "\u2581utaratibu": 3575,
  "\u2581village": 3576,
  "\u2581Under": 3577,
  "\u2581concerned": 3578,
  "\u2581hearing": 3579,
  "\u2581kiburi": 3580,
  "\u2581mwake": 3581,
  "\u2581tuendelee": 3582,
  "L": 3583,
  "\u2581High": 3584,
  "\u2581YOU": 3585,
  "\u2581kodi": 3586,
  "\u2581kuvuta": 3587,
  "\u2581ndipo": 3588,
  "\u2581Elisha": 3589,
  "\u2581Masihi": 3590,
  "\u2581army": 3591,
  "\u2581jioni": 3592,
  "\u25814;": 3593,
  "\u2581Here": 3594,
  "\u2581opening": 3595,
  "\u2581situations": 3596,
  "\u2581wenzetu": 3597,
  "sh": 3598,
  "\u2581Maji": 3599,
  "\u2581moshi": 3600,
  "\u2581refused": 3601,
  "heshimu": 3602,
  "\u2581Gileadi": 3603,
  "\u2581Mataifa": 3604,
  "\u2581answered": 3605,
  "\u2581kauli": 3606,
  "\u2581nilianza": 3607,
  "\u2581urged": 3608,
  "onwa": 3609,
  "\u2581Time": 3610,
  "\u2581kimungu": 3611,
  "\u2581overcome": 3612,
  "\u2581yaliyokuwa": 3613,
  "\u2581Earth": 3614,
  "\u2581Kimaandiko": 3615,
  "\u2581kansa": 3616,
  "\u2581kufika": 3617,
  "9": 3618,
  "tolewa": 3619,
  "\u2581KWA": 3620,
  "\u2581Robert": 3621,
  "\u2581anafanya": 3622,
  "\u2581region": 3623,
  "\u2581vision": 3624,
  "\u2581German": 3625,
  "\u2581Vi": 3626,
  "\u2581Wasomaji": 3627,
  "\u2581chuki": 3628,
  "\u2581delight": 3629,
  "\u2581shepherd": 3630,
  "\u2581udhaifu": 3631,
  "\u2581Photo": 3632,
  "\u2581giza": 3633,
  "\u2581kike": 3634,
  "stahili": 3635,
  "um": 3636,
  "\u258123,": 3637,
  "\u2581goes": 3638,
  "\u2581manner": 3639,
  "\u25811997": 3640,
  "\u2581Kikuu": 3641,
  "\u2581alikubali": 3642,
  "\u2581manufaa": 3643,
  "\u2581mwengine": 3644,
  "\u2581student": 3645,
  "\u2581zenu": 3646,
  "\u2581lie": 3647,
  "\u2581studied": 3648,
  "jiunga": 3649,
  "\u2581Pet": 3650,
  "\u2581Philippians": 3651,
  "\u2581friendship": 3652,
  "\u2581listening": 3653,
  "\u2581low": 3654,
  "\u2581mwandishi": 3655,
  "\u2581mwendo": 3656,
  "\u2581quoted": 3657,
  "\u2581viewed": 3658,
  "\u2581walipokuwa": 3659,
  "\u2581inawezekana": 3660,
  "\u2581kukazia": 3661,
  "\u2581kupanda": 3662,
  "\u2581kupigana": 3663,
  "\u2581mkamilifu": 3664,
  "\u2581mtumishi": 3665,
  "\u2581umeme": 3666,
  "fikiri": 3667,
  "\u2581appears": 3668,
  "\u2581authorities": 3669,
  "\u2581uasherati": 3670,
  "\u2581Wako": 3671,
  "\u25818]": 3672,
  "\u2581Unapo": 3673,
  "\u2581pole": 3674,
  "thamini": 3675,
  "\u2581History": 3676,
  "\u2581failed": 3677,
  "\u2581increased": 3678,
  "\u2581kupatikana": 3679,
  "\u2581kutangaza": 3680,
  "\u2581sort": 3681,
  "\u2581uzoefu": 3682,
  "5": 3683,
  "bu": 3684,
  "\u2581Tafsiri": 3685,
  "\u2581anayeweza": 3686,
  "\u2581hatimaye": 3687,
  "\u2581jamaa": 3688,
  "\u2581police": 3689,
  "\u2581tuchunguze": 3690,
  "\u2581yawe": 3691,
  "rs": 3692,
  "\u2581\"[": 3693,
  "\u2581nzito": 3694,
  "\u2581opposition": 3695,
  "ive": 3696,
  "\u2581appeared": 3697,
  "\u2581lies": 3698,
  "\u2581p": 3699,
  "\u2581strive": 3700,
  "tumika": 3701,
  "\u258131]": 3702,
  "\u2581NI": 3703,
  "\u2581community": 3704,
  "\u2581kiadili": 3705,
  "\u2581mingine": 3706,
  "kabili": 3707,
  "\u2581careful": 3708,
  "\u2581flock": 3709,
  "\u2581iliyochapishwa": 3710,
  "\u2581listed": 3711,
  "\u2581measure": 3712,
  "\u2581referred": 3713,
  "\u258132.": 3714,
  "\u2581America": 3715,
  "\u2581hau": 3716,
  "\u2581iliyofuata": 3717,
  "\u2581kumutumikia": 3718,
  "\u2581ulinzi": 3719,
  "\u2581uongo": 3720,
  "\u2581violent": 3721,
  "fikiria": 3722,
  "\u2581guard": 3723,
  "\u2581kutiwa": 3724,
  "\u2581makuu": 3725,
  "\u2581polepole": 3726,
  "\u2581top": 3727,
  "\u2581ubongo": 3728,
  "\u2581Kuu": 3729,
  "\u2581Spain": 3730,
  "\u2581ilipo": 3731,
  "\u2581mpangilio": 3732,
  "tajwa": 3733,
  "tazamia": 3734,
  "\u2581enzi": 3735,
  "\u2581higher": 3736,
  "\u2581kumfanya": 3737,
  "\u2581mamia": 3738,
  "\u2581overseer": 3739,
  "\u2581putt": 3740,
  "\u2581sincere": 3741,
  "\u2581wait": 3742,
  "faa": 3743,
  "\u2581askari": 3744,
  "\u2581mno": 3745,
  "\u2581thank": 3746,
  "\u2581comments": 3747,
  "\u2581company": 3748,
  "\u2581kijiji": 3749,
  "\u2581mtumwa": 3750,
  "\u2581Har": 3751,
  "\u2581North": 3752,
  "\u2581loyalty": 3753,
  "\u2581pure": 3754,
  "\u2581upasuaji": 3755,
  "\u2581vipande": 3756,
  "\u2581weight": 3757,
  "un": 3758,
  "\u2581drinking": 3759,
  "\u2581garden": 3760,
  "\u2581thousand": 3761,
  "\u2581wakubwa": 3762,
  "\u2581warned": 3763,
  "\u2581yata": 3764,
  "tangaza": 3765,
  "\u2581Teach": 3766,
  "\u2581center": 3767,
  "\u2581kikweli": 3768,
  "\u2581kwelikweli": 3769,
  "\u2581leading": 3770,
  "\u2581rain": 3771,
  "\u2581size": 3772,
  "vu": 3773,
  "\u2581Karibu": 3774,
  "\u2581Ukristo": 3775,
  "\u2581association": 3776,
  "\u2581magharibi": 3777,
  "\u2581pioneers": 3778,
  "\u2581recently": 3779,
  "\u2581taabu": 3780,
  "\u2581Mt": 3781,
  "\u2581anxiety": 3782,
  "\u2581brain": 3783,
  "\u2581decades": 3784,
  "\u2581foot": 3785,
  "soma": 3786,
  "\u2581Moyo": 3787,
  "\u2581Work": 3788,
  "tembelea": 3789,
  "\u2581Huuliza": 3790,
  "\u2581Parents": 3791,
  "\u2581Poland": 3792,
  "\u2581Sala": 3793,
  "\u2581greatly": 3794,
  "\u2581kuzungumuza": 3795,
  "\u2581Shule": 3796,
  "\u2581anapenda": 3797,
  "\u2581direct": 3798,
  "\u2581kuitwa": 3799,
  "\u2581placed": 3800,
  "\u2581statement": 3801,
  "\u2581wamekuwa": 3802,
  "lianza": 3803,
  "nayoweza": 3804,
  "\u2581appearance": 3805,
  "\u2581cost": 3806,
  "\u2581kutegemea": 3807,
  "\u2581anatumia": 3808,
  "\u2581economic": 3809,
  "\u2581huge": 3810,
  "\u2581reality": 3811,
  "badilika": 3812,
  "punguza": 3813,
  "\u2581Sana": 3814,
  "\u2581occur": 3815,
  "\u2581rejoice": 3816,
  "\u2581uliofanywa": 3817,
  "\u2581variety": 3818,
  "hakikisha": 3819,
  "napokuwa": 3820,
  "shiriki": 3821,
  "\u2581Le": 3822,
  "\u2581Memorial": 3823,
  "\u2581Vitu": 3824,
  "\u2581caring": 3825,
  "\u2581kuonekana": 3826,
  "ton": 3827,
  "\u2581Naomi": 3828,
  "\u2581Sometimes": 3829,
  "\u2581Yenye": 3830,
  "\u2581communication": 3831,
  "\u2581computer": 3832,
  "\u2581wakaaji": 3833,
  "\u2581chombo": 3834,
  "\u2581kuwapo": 3835,
  "\u2581understood": 3836,
  "\u2581wangeweza": 3837,
  "\u2581waters": 3838,
  "ver": 3839,
  "\u2581busy": 3840,
  "\u2581fail": 3841,
  "\u2581heavy": 3842,
  "\u2581helpful": 3843,
  "\u2581upainia": 3844,
  "ism": 3845,
  "son": 3846,
  "\u258142": 3847,
  "\u2581Learn": 3848,
  "\u2581William": 3849,
  "\u2581acceptable": 3850,
  "\u2581bure": 3851,
  "\u2581kuongeza": 3852,
  "\u2581remind": 3853,
  "\u2581surely": 3854,
  "This": 3855,
  "elekea": 3856,
  "ul": 3857,
  "\u2581Matt": 3858,
  "\u2581majeshi": 3859,
  "\u2581nanyi": 3860,
  "\u2581science": 3861,
  "\u2581territory": 3862,
  "komesha": 3863,
  "\u2581encouraging": 3864,
  "\u2581Kanuni": 3865,
  "\u2581Mbali": 3866,
  "\u2581conversation": 3867,
  "\u2581presented": 3868,
  "\u2581Yote": 3869,
  "\u2581disciple": 3870,
  "\u2581French": 3871,
  "\u2581Kadiri": 3872,
  "\u2581Kenya": 3873,
  "\u2581Mount": 3874,
  "\u2581Wanadamu": 3875,
  "\u2581kuwazia": 3876,
  "\u2581minutes": 3877,
  "\u2581tears": 3878,
  "\u2581travel": 3879,
  "\u2581uhalifu": 3880,
  "bidi": 3881,
  "puuza": 3882,
  "\u2581Kumbukumbu": 3883,
  "\u2581level": 3884,
  "\u2581licha": 3885,
  "\u2581publishers": 3886,
  "\u2581punde": 3887,
  "ad": 3888,
  "\u2581akilini": 3889,
  "\u2581confident": 3890,
  "\u2581tumbo": 3891,
  "dumu": 3892,
  "semekana": 3893,
  "\u2581pursue": 3894,
  "\u2581tusi": 3895,
  "\u2581uwezekano": 3896,
  "\u2581wafungwa": 3897,
  "\u2581wanaona": 3898,
  "\u2581younger": 3899,
  "tembea": 3900,
  "\u2581Cor": 3901,
  "\u2581European": 3902,
  "\u2581hupata": 3903,
  "\u2581mountains": 3904,
  "\u2581offering": 3905,
  "\u2581prophecies": 3906,
  "\u2581sovereignty": 3907,
  "\u2581wild": 3908,
  "\u2581zabihu": 3909,
  "at": 3910,
  "\u25812,000": 3911,
  "\u2581April": 3912,
  "\u2581Encyclopedia": 3913,
  "\u2581cold": 3914,
  "\u2581court": 3915,
  "\u2581merely": 3916,
  "gundua": 3917,
  "\u2581September": 3918,
  "\u2581international": 3919,
  "\u2581kiume": 3920,
  "\u2581vyake": 3921,
  "Wa": 3922,
  "\u2581Faith": 3923,
  "\u2581Huo": 3924,
  "\u2581Look": 3925,
  "\u2581Michael": 3926,
  "\u2581Mother": 3927,
  "\u2581Ruthu": 3928,
  "\u2581Uwe": 3929,
  "\u2581gone": 3930,
  "\u2581inaonekana": 3931,
  "\u2581survive": 3932,
  "\u2581Brazil": 3933,
  "\u2581Translation": 3934,
  "\u2581lika": 3935,
  "\u2581obedient": 3936,
  "tazama": 3937,
  "\u25812000": 3938,
  "\u258148": 3939,
  "\u2581Being": 3940,
  "\u2581compassion": 3941,
  "\u2581construction": 3942,
  "\u2581uchungu": 3943,
  "ci": 3944,
  "jihisi": 3945,
  "\u2581Body": 3946,
  "\u2581impressed": 3947,
  "\u2581makuhani": 3948,
  "pigwa": 3949,
  "\u258120]": 3950,
  "\u2581SONGS": 3951,
  "\u2581alitambua": 3952,
  "\u2581kumpa": 3953,
  "\u2581meno": 3954,
  "\u2581prospect": 3955,
  "\u2581waadilifu": 3956,
  "zaliwa": 3957,
  "\u2581beauty": 3958,
  "\u2581discussed": 3959,
  "\u2581kuenda": 3960,
  "\u2581kumpenda": 3961,
  "\u2581kurekebisha": 3962,
  "w": 3963,
  "\u2581Isaac": 3964,
  "\u2581correct": 3965,
  "\u2581enter": 3966,
  "\u2581indicate": 3967,
  "\u2581kisa": 3968,
  "\u2581letters": 3969,
  "\u2581obedience": 3970,
  "ao": 3971,
  "\u2581Mpya": 3972,
  "\u2581amefanya": 3973,
  "\u2581vyao": 3974,
  "\u2581International": 3975,
  "\u2581Kaskazini": 3976,
  "\u2581Z": 3977,
  "\u2581kushuka": 3978,
  "\u2581notice": 3979,
  "\u2581safe": 3980,
  "wasaidia": 3981,
  "\u2581Wazee": 3982,
  "\u2581mungu": 3983,
  "\u2581refers": 3984,
  "\u2581walipata": 3985,
  "\u2581easier": 3986,
  "\u2581faraja": 3987,
  "\u2581gifts": 3988,
  "\u2581hutokeza": 3989,
  "\u2581kuanzisha": 3990,
  "\u2581react": 3991,
  "\u2581sigara": 3992,
  "\u2581trained": 3993,
  "vunjika": 3994,
  "\u2581expected": 3995,
  "\u2581kupambana": 3996,
  "\u2581run": 3997,
  "\u2581secret": 3998,
  "\u2581ufahamu": 3999,
  "jue": 4000,
  "unga": 4001,
  "\u2581NYIMBO": 4002,
  "\u2581describe": 4003,
  "\u2581forest": 4004,
  "\u2581formed": 4005,
  "\u2581kumwona": 4006,
  "\u2581send": 4007,
  "\u2581stone": 4008,
  "shinda": 4009,
  "\u25812002": 4010,
  "\u2581Lich": 4011,
  "\u2581camp": 4012,
  "\u2581essential": 4013,
  "\u2581join": 4014,
  "\u2581mature": 4015,
  "\u2581welcome": 4016,
  "\u2581wind": 4017,
  "ian": 4018,
  "\u2581Britain": 4019,
  "\u2581Take": 4020,
  "\u2581Think": 4021,
  "\u2581broshua": 4022,
  "\u2581evident": 4023,
  "\u2581gereza": 4024,
  "ish": 4025,
  "\u2581Sarah": 4026,
  "\u2581amekuwa": 4027,
  "\u2581financial": 4028,
  "\u2581researchers": 4029,
  "\u2581vast": 4030,
  "\u2581wanaishi": 4031,
  "panda": 4032,
  "pelekwa": 4033,
  "\u2581WHAT": 4034,
  "\u2581fell": 4035,
  "\u2581hapana": 4036,
  "\u2581healthy": 4037,
  "\u2581race": 4038,
  "\u2581ushindi": 4039,
  "\u2581wajibu": 4040,
  "\u2581Paris": 4041,
  "\u2581manyoya": 4042,
  "\u2581wealth": 4043,
  "\u258119]": 4044,
  "\u2581Ulimwenguni": 4045,
  "\u2581kuondoka": 4046,
  "\u2581usafi": 4047,
  "\u2581De": 4048,
  "\u2581battle": 4049,
  "\u2581hawange": 4050,
  "\u2581mere": 4051,
  "\u2581ukombozi": 4052,
  "There": 4053,
  "\u2581(3)": 4054,
  "\u2581George": 4055,
  "\u2581Wakolosai": 4056,
  "\u2581forces": 4057,
  "\u2581hurt": 4058,
  "au": 4059,
  "\u2581Dini": 4060,
  "\u2581Kusudi": 4061,
  "\u2581Unabii": 4062,
  "\u2581kileo": 4063,
  "\u2581loves": 4064,
  "\u2581matajiri": 4065,
  "\u2581meal": 4066,
  "\u2581mfululizo": 4067,
  "\u2581paper": 4068,
  "\u2581subjects": 4069,
  "\u2581Inaonekana": 4070,
  "\u2581drawn": 4071,
  "\u2581fidia": 4072,
  "\u2581mistari": 4073,
  "\u25811998": 4074,
  "\u2581Health": 4075,
  "\u2581angalau": 4076,
  "\u2581associated": 4077,
  "\u2581girls": 4078,
  "\u2581gods": 4079,
  "\u2581machache": 4080,
  "\u2581mashirika": 4081,
  "\u2581onyo": 4082,
  "\u258125,": 4083,
  "\u2581below": 4084,
  "\u2581mna": 4085,
  "\u2581non": 4086,
  "\u2581washikamanifu": 4087,
  "\u2581wenyeji": 4088,
  "\u2581wish": 4089,
  "\u2581Dunia": 4090,
  "\u2581average": 4091,
  "\u2581emotions": 4092,
  "\u2581hair": 4093,
  "\u2581rise": 4094,
  "shirikiana": 4095,
  "\u258143": 4096,
  "\u258144": 4097,
  "\u2581Agosti": 4098,
  "\u2581Both": 4099,
  "\u2581Exodus": 4100,
  "\u2581UKIMWI": 4101,
  "\u2581demonstrate": 4102,
  "\u2581kill": 4103,
  "\u2581treated": 4104,
  "nisaidia": 4105,
  "gu": 4106,
  "ondoa": 4107,
  "\u2581Colossians": 4108,
  "\u2581Ha": 4109,
  "\u2581Naye": 4110,
  "\u2581damage": 4111,
  "\u2581pass": 4112,
  "\u2581preached": 4113,
  "ter": 4114,
  "\u2581advantage": 4115,
  "\u2581chose": 4116,
  "\u2581discussion": 4117,
  "\u2581makusudi": 4118,
  "\u2581Torati": 4119,
  "\u2581offspring": 4120,
  "V": 4121,
  "fika": 4122,
  "\u2581misitu": 4123,
  "\u258126,": 4124,
  "\u2581kikuu": 4125,
  "katika": 4126,
  "ol": 4127,
  "\u2581aid": 4128,
  "\u2581akisema": 4129,
  "\u2581kubadilika": 4130,
  "\u2581master": 4131,
  "\u2581waiting": 4132,
  "ty": 4133,
  "\u2581Wake": 4134,
  "\u2581afanye": 4135,
  "\u2581barafu": 4136,
  "\u2581crime": 4137,
  "\u2581enemy": 4138,
  "\u2581list": 4139,
  "\u2581purposes": 4140,
  "\u258141": 4141,
  "\u2581British": 4142,
  "\u2581Land": 4143,
  "\u2581Rom": 4144,
  "\u2581highly": 4145,
  "\u2581kuvunjika": 4146,
  "ina": 4147,
  "\u2581June": 4148,
  "\u2581Martha": 4149,
  "\u2581Un": 4150,
  "\u2581leaving": 4151,
  "ru": 4152,
  "\u2581accomplish": 4153,
  "\u2581approval": 4154,
  "\u2581assured": 4155,
  "\u2581billion": 4156,
  "\u2581gharama": 4157,
  "\u2581brochure": 4158,
  "\u2581kasoro": 4159,
  "\u2581kudhibiti": 4160,
  "\u2581kushughulikia": 4161,
  "\u2581mwangalizi": 4162,
  "\u2581reward": 4163,
  "SHI": 4164,
  "ity": 4165,
  "\u2581State": 4166,
  "\u2581drug": 4167,
  "\u2581journey": 4168,
  "\u2581pwani": 4169,
  "ze": 4170,
  "\u2581Korea": 4171,
  "\u2581commanded": 4172,
  "\u2581constantly": 4173,
  "\u2581kuwatia": 4174,
  "\u2581lililokuwa": 4175,
  "\u2581maziwa": 4176,
  "\u2581mshiriki": 4177,
  "\u2581nilipo": 4178,
  "\u2581reveals": 4179,
  "\u2581aliyo": 4180,
  "\u2581distress": 4181,
  "\u2581total": 4182,
  "\u2581decide": 4183,
  "\u2581secular": 4184,
  "\u2581unavyo": 4185,
  "\u2581vidogo": 4186,
  "\u2581mahubiri": 4187,
  "\u2581soil": 4188,
  "\u2581Sad": 4189,
  "\u2581buy": 4190,
  "\u2581closely": 4191,
  "\u2581culture": 4192,
  "\u2581habits": 4193,
  "\u2581mi": 4194,
  "\u2581victims": 4195,
  "gi": 4196,
  "sa": 4197,
  "\u258139": 4198,
  "\u2581Wafalme": 4199,
  "\u2581consideration": 4200,
  "\u2581harvest": 4201,
  "\u2581immoral": 4202,
  "\u2581mpendwa": 4203,
  "\u2581tufanye": 4204,
  "\u2581ulionyesha": 4205,
  "\u2581Russia": 4206,
  "\u2581belief": 4207,
  "\u2581forgive": 4208,
  "\u2581mtaalamu": 4209,
  "\u2581satisfaction": 4210,
  "\u2581capital": 4211,
  "\u2581matatu": 4212,
  "\u2581mkali": 4213,
  "\u2581moving": 4214,
  "\u2581tendo": 4215,
  "\u2581waliona": 4216,
  "safiri": 4217,
  "\u25812004": 4218,
  "\u2581Bill": 4219,
  "\u2581kiuchumi": 4220,
  "\u2581poverty": 4221,
  "\u2581promote": 4222,
  "\u2581slaves": 4223,
  "\u2581translated": 4224,
  "ary": 4225,
  "\u2581Deuteronomy": 4226,
  "\u2581Mwisho": 4227,
  "\u2581kupoteza": 4228,
  "\u2581kushangaza": 4229,
  "\u2581kutakuwa": 4230,
  "\u2581kuteseka": 4231,
  "\u2581msimamizi": 4232,
  "\u2581usemi": 4233,
  "\u2581Day": 4234,
  "\u2581color": 4235,
  "\u2581developing": 4236,
  "\u2581doctors": 4237,
  "\u2581leaves": 4238,
  "\u2581setting": 4239,
  "hubiri": 4240,
  "ine": 4241,
  "responsibilities": 4242,
  "\u2581Afya": 4243,
  "\u2581Imagine": 4244,
  "\u2581Nazi": 4245,
  "\u2581g": 4246,
  "\u2581kiongozi": 4247,
  "\u2581organized": 4248,
  "\u2581sinema": 4249,
  "\u2581utamaduni": 4250,
  "com": 4251,
  "\u2581assist": 4252,
  "\u2581exist": 4253,
  "\u2581hot": 4254,
  "\u2581usahihi": 4255,
  "\u2581zeal": 4256,
  "WA": 4257,
  "va": 4258,
  "\u2581Ee": 4259,
  "\u2581Italy": 4260,
  "\u2581Note": 4261,
  "\u2581Uta": 4262,
  "\u2581forgiveness": 4263,
  "\u2581kupanga": 4264,
  "\u2581legal": 4265,
  "\u2581male": 4266,
  "\u2581occurred": 4267,
  "\u2581pleasure": 4268,
  "\u2581virusi": 4269,
  "\u2581wakazi": 4270,
  "\u2581inhabitants": 4271,
  "\u2581invitation": 4272,
  "\u2581kutunza": 4273,
  "\u2581planet": 4274,
  "anzisha": 4275,
  "\u2581Katoliki": 4276,
  "\u2581complex": 4277,
  "\u2581extent": 4278,
  "\u2581kufurahisha": 4279,
  "\u2581potential": 4280,
  "\u2581praying": 4281,
  "liyokuwa": 4282,
  "simama": 4283,
  "\u2581AWAKE": 4284,
  "\u2581Mutu": 4285,
  "\u2581angani": 4286,
  "\u2581liki": 4287,
  "\u2581vituo": 4288,
  "What": 4289,
  "andikia": 4290,
  "\u2581KU": 4291,
  "\u2581adults": 4292,
  "\u2581aspects": 4293,
  "\u2581severe": 4294,
  "\u2581stopped": 4295,
  "\u2581uliokuwa": 4296,
  "\u2581upesi": 4297,
  "\u2581utimilifu": 4298,
  "mwomba": 4299,
  "x": 4300,
  "\u25813;": 4301,
  "\u2581haiko": 4302,
  "\u2581patience": 4303,
  "\u2581riches": 4304,
  "\u2581wanajua": 4305,
  "epuka": 4306,
  "\u2581Testament": 4307,
  "\u2581coast": 4308,
  "\u2581endurance": 4309,
  "\u2581kuua": 4310,
  "\u2581lote": 4311,
  "\u2581remarkable": 4312,
  "\u2581Sara": 4313,
  "\u2581conclude": 4314,
  "\u2581design": 4315,
  "\u2581escape": 4316,
  "\u2581manifest": 4317,
  "\u2581seriously": 4318,
  "My": 4319,
  "kata": 4320,
  "she": 4321,
  "toe": 4322,
  "\u25811,000": 4323,
  "\u2581Septemba": 4324,
  "\u2581applied": 4325,
  "\u2581kufuatia": 4326,
  "\u2581mlango": 4327,
  "\u2581skills": 4328,
  "athiri": 4329,
  "\u2581format": 4330,
  "\u2581lessons": 4331,
  "\u2581wapendwa": 4332,
  "lu": 4333,
  "sahau": 4334,
  "siku": 4335,
  "tarajia": 4336,
  "tumikia": 4337,
  "\u2581Biblical": 4338,
  "\u2581Umoja": 4339,
  "\u2581dalili": 4340,
  "\u2581details": 4341,
  "\u2581hospital": 4342,
  "\u2581religions": 4343,
  "\u2581shared": 4344,
  "faulu": 4345,
  "ting": 4346,
  "\u2581December": 4347,
  "\u2581Gospel": 4348,
  "\u2581HABARI": 4349,
  "\u2581famous": 4350,
  "\u2581kipimo": 4351,
  "\u2581saved": 4352,
  "tumishi": 4353,
  "\u2581119": 4354,
  "\u2581estimated": 4355,
  "\u2581impossible": 4356,
  "\u2581machozi": 4357,
  "\u2581Govern": 4358,
  "\u2581Ireland": 4359,
  "\u2581discreet": 4360,
  "\u2581kigeni": 4361,
  "\u2581kufanywa": 4362,
  "\u2581mwangaza": 4363,
  "\u2581pictures": 4364,
  "\u2581Am": 4365,
  "\u2581News": 4366,
  "\u2581concluded": 4367,
  "\u2581huyu": 4368,
  "\u2581mfadhaiko": 4369,
  "\u2581judge": 4370,
  "\u2581nearby": 4371,
  "\u2581wazuri": 4372,
  "\u258111]": 4373,
  "\u2581Ps": 4374,
  "\u2581afraid": 4375,
  "\u2581cancer": 4376,
  "\u2581difference": 4377,
  "\u2581hatupaswi": 4378,
  "\u2581kifaa": 4379,
  "\u2581kisheria": 4380,
  "\u2581minds": 4381,
  "\u2581released": 4382,
  "\u2581sit": 4383,
  "\u2581wanavyo": 4384,
  "vutiwa": 4385,
  "\u25812011": 4386,
  "\u2581Charles": 4387,
  "\u2581akaanza": 4388,
  "\u2581facts": 4389,
  "\u2581jengo": 4390,
  "\u2581wivu": 4391,
  "\u2581causing": 4392,
  "\u2581inafaa": 4393,
  "\u2581kusikitisha": 4394,
  "\u2581kutembelea": 4395,
  "\u2581neighbors": 4396,
  "\u2581pattern": 4397,
  "\u2581receiving": 4398,
  "\u2581theluji": 4399,
  "\u2581upinzani": 4400,
  "fi": 4401,
  "\u2581Mwanamke": 4402,
  "\u2581Ugiriki": 4403,
  "\u2581divorce": 4404,
  "\u2581hiari": 4405,
  "\u2581resist": 4406,
  "\u2581Latin": 4407,
  "\u2581Tukiwa": 4408,
  "\u2581bodies": 4409,
  "\u2581evidently": 4410,
  "\u2581kinywa": 4411,
  "\u2581mifupa": 4412,
  "anguka": 4413,
  "tilia": 4414,
  "\u2581kingono": 4415,
  "\u2581reference": 4416,
  "\u2581responded": 4417,
  "\u2581African": 4418,
  "\u2581Mukristo": 4419,
  "\u2581Sikuzote": 4420,
  "\u2581mafunzo": 4421,
  "\u2581providing": 4422,
  "\u2581views": 4423,
  "\u2581yaweza": 4424,
  "\u2581AMK": 4425,
  "\u2581Mi": 4426,
  "\u2581anahitaji": 4427,
  "\u2581aside": 4428,
  "\u2581barabarani": 4429,
  "\u2581circuit": 4430,
  "\u2581compared": 4431,
  "\u2581fulfill": 4432,
  "\u2581indicates": 4433,
  "\u25812012": 4434,
  "\u258129]": 4435,
  "\u2581Mei": 4436,
  "\u2581River": 4437,
  "\u2581bearing": 4438,
  "\u2581daughters": 4439,
  "\u2581fruitage": 4440,
  "\u2581ifaayo": 4441,
  "\u2581ilivyokuwa": 4442,
  "\u2581kubaki": 4443,
  "\u2581makabila": 4444,
  "\u2581opportunities": 4445,
  "\u2581powers": 4446,
  "\u2581uliopita": 4447,
  "\u258146": 4448,
  "\u2581Answer": 4449,
  "\u2581bed": 4450,
  "\u2581due": 4451,
  "\u2581insight": 4452,
  "\u2581largest": 4453,
  "\u2581mawimbi": 4454,
  "\u2581nywele": 4455,
  "\u2581twa": 4456,
  "kadiriwa": 4457,
  "\u2581Mfano": 4458,
  "\u2581feels": 4459,
  "\u2581hofu": 4460,
  "\u2581kilomita": 4461,
  "\u2581mvulana": 4462,
  "\u2581national": 4463,
  "\u2581patients": 4464,
  "\u2581ruler": 4465,
  "\u2581sumu": 4466,
  "\u2581ubinafsi": 4467,
  "\u2581Go": 4468,
  "\u2581anaendelea": 4469,
  "\u2581contrary": 4470,
  "\u2581pombe": 4471,
  "\u2581wedding": 4472,
  "\u2581Walikuwa": 4473,
  "\u2581Yule": 4474,
  "\u2581grown": 4475,
  "\u2581majirani": 4476,
  "\u2581michango": 4477,
  "funua": 4478,
  "\u2581Eb": 4479,
  "\u2581art": 4480,
  "\u2581copies": 4481,
  "\u2581kutanikoni": 4482,
  "\u2581raise": 4483,
  "\u2581succeed": 4484,
  "fa": 4485,
  "napaswa": 4486,
  "\u2581Courtesy": 4487,
  "\u2581inayoitwa": 4488,
  "\u2581ushikamanifu": 4489,
  "fikirie": 4490,
  "\u2581count": 4491,
  "\u2581ijapokuwa": 4492,
  "\u2581mazito": 4493,
  "\u2581michache": 4494,
  "\u2581nyekundu": 4495,
  "\u2581phone": 4496,
  "\u2581tajiri": 4497,
  "\u2581walioishi": 4498,
  "\u2581writes": 4499,
  "\u2581Every": 4500,
  "\u2581Mika": 4501,
  "\u2581Museum": 4502,
  "\u2581Zab": 4503,
  "\u2581blind": 4504,
  "\u2581entered": 4505,
  "\u2581kuhuzunisha": 4506,
  "\u2581thabiti": 4507,
  "\u2581black": 4508,
  "\u2581conflict": 4509,
  "\u2581honest": 4510,
  "\u2581kimataifa": 4511,
  "\u2581mwadilifu": 4512,
  "\u2581troubled": 4513,
  "\u2581wapya": 4514,
  "athiriwa": 4515,
  "ies": 4516,
  "tawala": 4517,
  "\u2581deliver": 4518,
  "\u2581mtunga": 4519,
  "ck": 4520,
  "\u2581Regard": 4521,
  "\u2581elfu": 4522,
  "\u2581hundred": 4523,
  "\u2581ndefu": 4524,
  "\u2581obtain": 4525,
  "\u2581recognized": 4526,
  "\u2581sivyo": 4527,
  "rudi": 4528,
  "\u2581Al": 4529,
  "\u2581JE": 4530,
  "\u2581committed": 4531,
  "\u2581determine": 4532,
  "\u2581ideas": 4533,
  "\u2581ninaweza": 4534,
  "\u2581perform": 4535,
  "\u2581background": 4536,
  "\u2581lasting": 4537,
  "\u2581nyimbo": 4538,
  "\u2581spouse": 4539,
  "changia": 4540,
  "tion": 4541,
  "\u2581Could": 4542,
  "\u2581Lines": 4543,
  "\u2581expressions": 4544,
  "\u2581heat": 4545,
  "\u2581mitano": 4546,
  "\u2581unyoofu": 4547,
  "azimia": 4548,
  "linda": 4549,
  "\u2581atakaye": 4550,
  "\u2581directly": 4551,
  "\u2581rate": 4552,
  "\u2581tiba": 4553,
  "fahamu": 4554,
  "jenga": 4555,
  "\u2581Please": 4556,
  "\u2581Y": 4557,
  "\u2581aliposema": 4558,
  "\u2581bilioni": 4559,
  "\u2581fast": 4560,
  "\u2581joined": 4561,
  "\u2581likewise": 4562,
  "\u2581maovu": 4563,
  "\u2581performed": 4564,
  "\u2581accompany": 4565,
  "\u2581aliishi": 4566,
  "\u2581hospitali": 4567,
  "dai": 4568,
  "tupa": 4569,
  "v": 4570,
  "zaa": 4571,
  "\u258134.": 4572,
  "\u2581Ndege": 4573,
  "\u2581refer": 4574,
  "andikwa": 4575,
  "bo": 4576,
  "\u2581Don": 4577,
  "\u2581January": 4578,
  "\u2581cares": 4579,
  "\u2581magazines": 4580,
  "\u2581stadi": 4581,
  "\u2581struggle": 4582,
  "\u2581wamefanya": 4583,
  "fanikiwa": 4584,
  "shindwa": 4585,
  "\u2581handle": 4586,
  "\u2581ilianza": 4587,
  "\u2581ill": 4588,
  "\u2581kuzungumzia": 4589,
  "\u2581mawasiliano": 4590,
  "\u2581trial": 4591,
  "\u2581walikufa": 4592,
  "Mwezi": 4593,
  "\u2581400": 4594,
  "\u2581covered": 4595,
  "\u2581houses": 4596,
  "\u2581lay": 4597,
  "\u258129,": 4598,
  "\u2581contribute": 4599,
  "\u2581kiumbe": 4600,
  "\u2581mwao": 4601,
  "\u2581numerous": 4602,
  "\u2581visitors": 4603,
  "msaidia": 4604,
  "wawezesha": 4605,
  "\u25813]": 4606,
  "\u2581LA": 4607,
  "\u2581Nikiwa": 4608,
  "\u2581kutatua": 4609,
  "\u2581marufuku": 4610,
  "\u2581mwilini": 4611,
  "ah": 4612,
  "\u25812008": 4613,
  "\u258122]": 4614,
  "\u2581assure": 4615,
  "\u2581create": 4616,
  "\u2581development": 4617,
  "\u2581located": 4618,
  "\u2581relates": 4619,
  "\u2581scholars": 4620,
  "\u2581task": 4621,
  "\u2581ushirika": 4622,
  "\u2581vyetu": 4623,
  "\u2581wazia": 4624,
  "\u2581zealous": 4625,
  "chochea": 4626,
  "pendwa": 4627,
  "watu": 4628,
  "\u2581anaona": 4629,
  "\u2581dark": 4630,
  "\u2581demons": 4631,
  "\u2581jinsia": 4632,
  "\u2581visiwa": 4633,
  "out": 4634,
  "\u2581Aprili": 4635,
  "\u2581Waki": 4636,
  "\u2581abundance": 4637,
  "\u2581chance": 4638,
  "\u2581majuzi": 4639,
  "\u2581nyuzi": 4640,
  "\u2581pride": 4641,
  "\u2581temptation": 4642,
  "\u2581utulivu": 4643,
  "\u2581wanataka": 4644,
  "J": 4645,
  "\u2581Hav": 4646,
  "\u2581distance": 4647,
  "\u2581hadithi": 4648,
  "\u2581jicho": 4649,
  "\u2581makanisa": 4650,
  "\u2581mkononi": 4651,
  "\u2581mlima": 4652,
  "\u2581sees": 4653,
  "\u2581wasichana": 4654,
  "peleka": 4655,
  "\u2581Lazima": 4656,
  "\u2581Serikali": 4657,
  "\u2581alikuja": 4658,
  "\u2581entertainment": 4659,
  "\u2581kupatwa": 4660,
  "\u2581moment": 4661,
  "\u2581overseers": 4662,
  "\u2581uzazi": 4663,
  "thibitisha": 4664,
  "\u2581Isaka": 4665,
  "\u2581Pengine": 4666,
  "\u2581carrying": 4667,
  "\u2581directed": 4668,
  "\u2581diseases": 4669,
  "\u2581kijamii": 4670,
  "\u2581kisasi": 4671,
  "\u2581kutafsiri": 4672,
  "\u2581separate": 4673,
  "\u2581slow": 4674,
  "\u2581touched": 4675,
  "ie": 4676,
  "kubaliwa": 4677,
  "our": 4678,
  "\u258130,": 4679,
  "\u2581alitaja": 4680,
  "\u2581illustrate": 4681,
  "\u2581kukutana": 4682,
  "\u2581miujiza": 4683,
  "\u2581mtakatifu": 4684,
  "\u2581nine": 4685,
  "\u2581telling": 4686,
  "\u2581worse": 4687,
  "Ikiwa": 4688,
  "sikiliza": 4689,
  "vuta": 4690,
  "\u2581Spirit": 4691,
  "\u2581couples": 4692,
  "\u2581mageuzi": 4693,
  "\u2581mto": 4694,
  "\u2581solution": 4695,
  "\u2581surprise": 4696,
  "\u2581yaelekea": 4697,
  "\u2581East": 4698,
  "\u2581FOR": 4699,
  "\u2581Furaha": 4700,
  "\u2581March": 4701,
  "\u2581Sa": 4702,
  "\u2581Sunday": 4703,
  "\u2581Table": 4704,
  "\u2581Walawi": 4705,
  "\u2581dealing": 4706,
  "\u2581endeavor": 4707,
  "\u2581god": 4708,
  "\u2581hakukuwa": 4709,
  "\u2581kabila": 4710,
  "\u2581kuokoa": 4711,
  "\u2581significant": 4712,
  "\u2581tiny": 4713,
  "\u2581unable": 4714,
  "\u2581utumwa": 4715,
  "\u2581yaki": 4716,
  "\u25814]": 4717,
  "\u2581e": 4718,
  "\u2581kampuni": 4719,
  "\u2581karatasi": 4720,
  "\u2581kukua": 4721,
  "\u2581kuwafanya": 4722,
  "\u2581mzunguko": 4723,
  "\u2581ponografia": 4724,
  "\u2581unahitaji": 4725,
  "RA": 4726,
  "dadi": 4727,
  "\u2581Has": 4728,
  "\u2581Wagalatia": 4729,
  "\u2581governments": 4730,
  "\u2581leads": 4731,
  "\u2581miji": 4732,
  "\u2581rely": 4733,
  "\u2581strengthened": 4734,
  "\u25812005": 4735,
  "\u2581Nguvu": 4736,
  "\u2581Yako": 4737,
  "\u2581exactly": 4738,
  "\u2581instruction": 4739,
  "\u2581kimbingu": 4740,
  "\u2581kuhifadhi": 4741,
  "\u2581maono": 4742,
  "\u2581mufalme": 4743,
  "\u2581scientific": 4744,
  "\u2581scriptures": 4745,
  "Katika": 4746,
  "zuia": 4747,
  "\u2581Kijana": 4748,
  "\u2581darkness": 4749,
  "\u2581engage": 4750,
  "\u2581female": 4751,
  "\u2581mishonari": 4752,
  "\u2581outstanding": 4753,
  "\u2581project": 4754,
  "\u2581allows": 4755,
  "\u2581cry": 4756,
  "\u2581ingekuwa": 4757,
  "\u2581isipokuwa": 4758,
  "\u2581mwepesi": 4759,
  "\u2581orodha": 4760,
  "\u2581wanapenda": 4761,
  "\u2581Galatians": 4762,
  "\u2581Kings": 4763,
  "\u2581MWANDI": 4764,
  "\u2581October": 4765,
  "\u2581assistance": 4766,
  "\u2581prophets": 4767,
  "\u2581pupa": 4768,
  "\u2581verses": 4769,
  "\u2581wanatumia": 4770,
  "bi": 4771,
  "\u2581Tatizo": 4772,
  "\u2581anayeishi": 4773,
  "\u2581dhaifu": 4774,
  "\u2581forced": 4775,
  "\u2581ingine": 4776,
  "\u2581nyoka": 4777,
  "\u2581official": 4778,
  "\u2581ua": 4779,
  "Nina": 4780,
  "\u2581Aliye": 4781,
  "\u2581identify": 4782,
  "\u2581primary": 4783,
  "\u2581speaks": 4784,
  "ingiza": 4785,
  "\u2581Russell": 4786,
  "\u2581ended": 4787,
  "ning": 4788,
  "\u2581Bado": 4789,
  "\u2581Matatizo": 4790,
  "\u2581adult": 4791,
  "\u2581beneficial": 4792,
  "\u2581salt": 4793,
  "\u2581tunajua": 4794,
  "\u2581viwili": 4795,
  "\u2581waasi": 4796,
  "fundisha": 4797,
  "\u2581additional": 4798,
  "\u2581bless": 4799,
  "\u2581entitled": 4800,
  "\u2581karamu": 4801,
  "\u2581kulipa": 4802,
  "\u2581trouble": 4803,
  "\u2581ubaya": 4804,
  "\u2581ulizo": 4805,
  "\u2581alipenda": 4806,
  "\u2581identified": 4807,
  "\u2581kesi": 4808,
  "\u2581ruin": 4809,
  "\u2581tunaishi": 4810,
  "imulizi": 4811,
  "kua": 4812,
  "ongezeka": 4813,
  "wezi": 4814,
  "\u2581150": 4815,
  "\u2581California": 4816,
  "\u2581WRITER": 4817,
  "\u2581tisa": 4818,
  "id": 4819,
  "jengwa": 4820,
  "nga": 4821,
  "shughulikia": 4822,
  "\u2581[\"": 4823,
  "\u2581dangers": 4824,
  "\u2581husbands": 4825,
  "\u2581jingine": 4826,
  "\u2581kuchochea": 4827,
  "\u2581northern": 4828,
  "\u2581satisfying": 4829,
  "\u2581stars": 4830,
  "nitia": 4831,
  "\u25812003": 4832,
  "\u258175": 4833,
  "\u2581Give": 4834,
  "\u2581Magharibi": 4835,
  "\u2581Study": 4836,
  "\u2581angekuwa": 4837,
  "\u2581commandments": 4838,
  "\u2581eternal": 4839,
  "\u2581gathered": 4840,
  "\u2581kupendezwa": 4841,
  "\u2581plan": 4842,
  "\u2581supply": 4843,
  "\u2581waliishi": 4844,
  "\u2581Haku": 4845,
  "\u2581Thank": 4846,
  "\u2581Wakatoliki": 4847,
  "\u2581boys": 4848,
  "\u2581chief": 4849,
  "\u2581dry": 4850,
  "\u2581hawaja": 4851,
  "\u2581kufanikiwa": 4852,
  "\u2581navyo": 4853,
  "\u2581sought": 4854,
  "wapa": 4855,
  "\u2581caught": 4856,
  "\u2581immorality": 4857,
  "\u2581mkazo": 4858,
  "\u2581ongezeko": 4859,
  "\u2581rulership": 4860,
  "\u2581wanaofanya": 4861,
  "linganishwa": 4862,
  "shika": 4863,
  "\u2581persons": 4864,
  "\u2581useful": 4865,
  "\u2581yafuatayo": 4866,
  "\u2581Hatua": 4867,
  "\u2581Inc": 4868,
  "\u2581Ndoa": 4869,
  "\u2581aliwapa": 4870,
  "\u2581miili": 4871,
  "\u2581mkate": 4872,
  "\u2581soldiers": 4873,
  "CHINI": 4874,
  "ang": 4875,
  "\u2581Sifa": 4876,
  "\u2581Ugonjwa": 4877,
  "\u2581factor": 4878,
  "\u2581harmful": 4879,
  "\u2581yasiyofaa": 4880,
  "Ma": 4881,
  "\u2581COVER": 4882,
  "\u2581kotekote": 4883,
  "\u2581kujiua": 4884,
  "\u2581path": 4885,
  "\u2581season": 4886,
  "\u2581superior": 4887,
  "\u2581unaokuja": 4888,
  "\u2581wanaendelea": 4889,
  "\u2581Iwe": 4890,
  "\u2581Kitu": 4891,
  "\u2581hange": 4892,
  "\u2581iron": 4893,
  "\u2581sayari": 4894,
  "\u2581ubatizo": 4895,
  "\u2581finding": 4896,
  "\u2581games": 4897,
  "\u2581kasi": 4898,
  "\u2581keeps": 4899,
  "\u2581mwema": 4900,
  "\u2581uzao": 4901,
  "Na": 4902,
  "\u2581Israelite": 4903,
  "\u2581Wazia": 4904,
  "\u2581Yaelekea": 4905,
  "\u2581clothing": 4906,
  "\u2581happens": 4907,
  "\u2581kuendeleza": 4908,
  "\u2581kumjua": 4909,
  "\u2581rejected": 4910,
  "\u2581remove": 4911,
  "\u2581rock": 4912,
  "\u2581united": 4913,
  "\u2581upright": 4914,
  "\u2581Ahadi": 4915,
  "\u2581Desemba": 4916,
  "\u2581NY": 4917,
  "\u2581balanced": 4918,
  "\u2581credit": 4919,
  "\u2581disaster": 4920,
  "\u2581kifalme": 4921,
  "\u2581makasisi": 4922,
  "\u2581mistakes": 4923,
  "\u2581safety": 4924,
  "\u2581wall": 4925,
  "\u2581winter": 4926,
  "hether": 4927,
  "\u2581Ezekieli": 4928,
  "\u2581gradually": 4929,
  "\u2581heartfelt": 4930,
  "\u2581kujitoa": 4931,
  "\u2581require": 4932,
  "\u2581silver": 4933,
  "\u2581trip": 4934,
  "\u2581waliokufa": 4935,
  "\u25812009": 4936,
  "\u2581freely": 4937,
  "\u2581huanza": 4938,
  "\u2581ndoto": 4939,
  "\u2581relationships": 4940,
  "\u2581surprised": 4941,
  "\u2581trade": 4942,
  "\u2581tuone": 4943,
  "isha": 4944,
  "kilichochapishwa": 4945,
  "\u258172": 4946,
  "\u2581Nairobi": 4947,
  "\u2581jiwe": 4948,
  "\u2581kelele": 4949,
  "\u2581meditate": 4950,
  "\u2581river": 4951,
  "\u2581tunafanya": 4952,
  "fanye": 4953,
  "lea": 4954,
  "\u25812010": 4955,
  "\u2581TV": 4956,
  "\u2581WATU": 4957,
  "\u2581churches": 4958,
  "\u2581concerns": 4959,
  "\u2581herufi": 4960,
  "\u2581inner": 4961,
  "age": 4962,
  "\u2581Kupata": 4963,
  "\u2581noticed": 4964,
  "\u2581pre": 4965,
  "\u2581rules": 4966,
  "\u2581style": 4967,
  "\u2581symptoms": 4968,
  "\u2581traditional": 4969,
  "\u2581\u25c6": 4970,
  "\u2581Christendom": 4971,
  "\u2581Jibu": 4972,
  "\u2581Philip": 4973,
  "kula": 4974,
  "\u2581Likewise": 4975,
  "\u2581Uhai": 4976,
  "\u2581kume": 4977,
  "\u2581mas": 4978,
  "\u2581ombi": 4979,
  "\u2581vipindi": 4980,
  "beba": 4981,
  "\u2581Car": 4982,
  "\u2581Center": 4983,
  "\u2581Ezekiel": 4984,
  "\u2581Linaloongoza": 4985,
  "\u2581Richard": 4986,
  "\u2581alitabiri": 4987,
  "\u2581apart": 4988,
  "\u2581beloved": 4989,
  "\u2581deeds": 4990,
  "\u2581faithfully": 4991,
  "\u2581listened": 4992,
  "\u2581miamba": 4993,
  "\u2581resolve": 4994,
  "\u2581vilikuwa": 4995,
  "All": 4996,
  "\u2581Edeni": 4997,
  "\u2581delivered": 4998,
  "\u2581indicated": 4999,
  "\u2581msamaha": 5000,
  "\u2581pointed": 5001,
  "\u2581reduce": 5002,
  "\u2581summer": 5003,
  "\u2581wars": 5004,
  "How": 5005,
  "ir": 5006,
  "liamua": 5007,
  "nunua": 5008,
  "\u2581Julai": 5009,
  "\u2581Pharaoh": 5010,
  "\u2581chao": 5011,
  "\u2581kushika": 5012,
  "\u2581kwenu": 5013,
  "\u2581pornography": 5014,
  "\u2581serves": 5015,
  "que": 5016,
  "\u258127,": 5017,
  "\u2581Wanao": 5018,
  "\u2581belong": 5019,
  "\u2581ulimi": 5020,
  "che": 5021,
  "geuza": 5022,
  "\u2581UN": 5023,
  "\u2581attacks": 5024,
  "\u2581dogo": 5025,
  "\u2581enabl": 5026,
  "\u2581jumba": 5027,
  "\u2581kujizuia": 5028,
  "\u2581methods": 5029,
  "\u2581ninge": 5030,
  "\u2581wanne": 5031,
  "ER": 5032,
  "\u2581Internete": 5033,
  "\u2581boat": 5034,
  "\u2581kupinga": 5035,
  "\u2581kuwaonyesha": 5036,
  "\u2581maonyesho": 5037,
  "\u2581mwitu": 5038,
  "\u2581north": 5039,
  "\u2581offers": 5040,
  "\u2581reaction": 5041,
  "\u2581television": 5042,
  "\u2581tender": 5043,
  "angalia": 5044,
  "chukue": 5045,
  "\u2581Micah": 5046,
  "\u2581angry": 5047,
  "\u2581ilisema": 5048,
  "\u2581kuimarisha": 5049,
  "\u2581kuogopa": 5050,
  "\u2581kushindwa": 5051,
  "\u2581taa": 5052,
  "\u2581vema": 5053,
  "\u2581wamishonari": 5054,
  "\u2581writings": 5055,
  "\u2581zika": 5056,
  "hudhuria": 5057,
  "jihusisha": 5058,
  "mletea": 5059,
  "tafiti": 5060,
  "wachochea": 5061,
  "\u2581Tumaini": 5062,
  "\u2581applying": 5063,
  "\u2581goodness": 5064,
  "\u2581kitiba": 5065,
  "\u2581kujiunga": 5066,
  "\u2581kustaajabisha": 5067,
  "\u2581ramani": 5068,
  "\u2581successfully": 5069,
  "\u2581traveled": 5070,
  "tor": 5071,
  "\u25811970": 5072,
  "\u2581Jonathan": 5073,
  "\u2581MAMBO": 5074,
  "\u2581aliamua": 5075,
  "\u2581connection": 5076,
  "\u2581content": 5077,
  "\u2581injustice": 5078,
  "\u2581majority": 5079,
  "\u2581mtawala": 5080,
  "\u2581products": 5081,
  "\u2581ship": 5082,
  "\u2581weather": 5083,
  "\u2581yes": 5084,
  "pigana": 5085,
  "\u2581Eden": 5086,
  "\u2581Farao": 5087,
  "\u2581Kujifunza": 5088,
  "\u2581Mlima": 5089,
  "\u2581San": 5090,
  "\u2581Wanasayansi": 5091,
  "\u2581hatred": 5092,
  "\u2581images": 5093,
  "\u2581imekuwa": 5094,
  "\u2581kiakili": 5095,
  "\u2581kifedha": 5096,
  "\u2581muna": 5097,
  "\u2581umaskini": 5098,
  "ate": 5099,
  "tumwa": 5100,
  "zoea": 5101,
  "\u2581binafsi": 5102,
  "\u2581kisayansi": 5103,
  "\u2581medicine": 5104,
  "ant": 5105,
  "jaa": 5106,
  "pendeza": 5107,
  "\u2581Explain": 5108,
  "\u2581Huduma": 5109,
  "\u2581NW": 5110,
  "\u2581Nations": 5111,
  "\u2581Nyumba": 5112,
  "\u2581Zamani": 5113,
  "\u2581ark": 5114,
  "\u2581begins": 5115,
  "\u2581companions": 5116,
  "\u2581grasp": 5117,
  "\u2581numbers": 5118,
  "\u2581recalls": 5119,
  "songa": 5120,
  "tabiri": 5121,
  "\u00e1": 5122,
  "\u2581Tume": 5123,
  "\u2581alio": 5124,
  "\u2581bond": 5125,
  "\u2581changu": 5126,
  "\u2581depend": 5127,
  "\u2581fearing": 5128,
  "\u2581hayaku": 5129,
  "\u2581herself": 5130,
  "\u2581kindly": 5131,
  "\u2581kusimama": 5132,
  "\u2581lying": 5133,
  "\u2581model": 5134,
  "\u2581reject": 5135,
  "\u2581reminded": 5136,
  "\u2581tend": 5137,
  "\u2581treasure": 5138,
  "gusa": 5139,
  "\u2581AND": 5140,
  "\u2581excellent": 5141,
  "\u2581hasara": 5142,
  "\u2581kutegemeza": 5143,
  "\u2581mighty": 5144,
  "\u2581photo": 5145,
  "\u2581services": 5146,
  "\u2581sword": 5147,
  "\u2581unajua": 5148,
  "\u2581undeserved": 5149,
  "\u2581walked": 5150,
  "\u2581walls": 5151,
  "Siku": 5152,
  "pu": 5153,
  "\u2581144,000": 5154,
  "\u2581appreciated": 5155,
  "\u2581comforting": 5156,
  "\u2581manabii": 5157,
  "\u2581reaching": 5158,
  "\u2581touch": 5159,
  "but": 5160,
  "ili": 5161,
  "\u2581Wanaume": 5162,
  "\u2581Yake": 5163,
  "\u2581contain": 5164,
  "\u2581f": 5165,
  "\u2581floor": 5166,
  "\u2581involve": 5167,
  "\u2581kutegemeka": 5168,
  "\u2581mothers": 5169,
  "\u2581physically": 5170,
  "\u2581release": 5171,
  "\u2581uleule": 5172,
  "\u2581uwanja": 5173,
  "\u2581widow": 5174,
  "chapishwa": 5175,
  "tic": 5176,
  "\u2581Asili": 5177,
  "\u2581Funzo": 5178,
  "\u2581Map": 5179,
  "\u2581dear": 5180,
  "\u2581failure": 5181,
  "\u2581kutaka": 5182,
  "\u2581peaceful": 5183,
  "\u2581suggestions": 5184,
  "\u2581Januari": 5185,
  "\u2581Malaika": 5186,
  "\u2581constant": 5187,
  "ful": 5188,
  "mp": 5189,
  "tie": 5190,
  "\u2581Eva": 5191,
  "\u2581Eventually": 5192,
  "\u2581apate": 5193,
  "\u2581balance": 5194,
  "\u2581familiar": 5195,
  "\u2581kuhamia": 5196,
  "\u2581laripoti": 5197,
  "\u2581paid": 5198,
  "\u2581pake": 5199,
  "\u2581wanapata": 5200,
  "kumbwa": 5201,
  "maliza": 5202,
  "mpa": 5203,
  "\u2581Contents": 5204,
  "\u2581Hana": 5205,
  "\u2581Know": 5206,
  "\u2581Second": 5207,
  "\u2581Wanawake": 5208,
  "\u2581dealings": 5209,
  "\u2581items": 5210,
  "\u2581kuthibitisha": 5211,
  "\u2581mashindano": 5212,
  "\u2581mito": 5213,
  "\u2581waangalizi": 5214,
  "\u2581wakuu": 5215,
  "\u2581wanyenyekevu": 5216,
  "\u2581wasikilizaji": 5217,
  "fungua": 5218,
  "\u2581Amani": 5219,
  "\u2581DNA": 5220,
  "\u2581Pa": 5221,
  "\u2581career": 5222,
  "\u2581conventions": 5223,
  "\u2581instructions": 5224,
  "\u2581pleased": 5225,
  "\u2581straight": 5226,
  "\u2581terms": 5227,
  "\u2581waume": 5228,
  "\u2581weak": 5229,
  "\u2581Aina": 5230,
  "\u2581kusamehe": 5231,
  "\u2581middle": 5232,
  "\u2581opposite": 5233,
  "\u2581range": 5234,
  "\u2581ukarimu": 5235,
  "ite": 5236,
  "zungumuza": 5237,
  "\u2581Asa": 5238,
  "\u2581Kuliko": 5239,
  "\u2581Service": 5240,
  "\u2581Visit": 5241,
  "\u2581kubeba": 5242,
  "\u2581mikubwa": 5243,
  "\u2581resources": 5244,
  "\u2581ulivyo": 5245,
  "cha": 5246,
  "\u2581Mosaic": 5247,
  "\u2581alijifunza": 5248,
  "\u2581clothes": 5249,
  "\u2581determination": 5250,
  "\u2581granted": 5251,
  "\u2581kukomaa": 5252,
  "\u2581played": 5253,
  "\u2581private": 5254,
  "\u2581suggest": 5255,
  "\u2581tafadhali": 5256,
  "\u2581team": 5257,
  "\u2581visiting": 5258,
  "\u2581waangalifu": 5259,
  "\u2581Ro": 5260,
  "\u2581agreed": 5261,
  "\u2581amazing": 5262,
  "\u2581exists": 5263,
  "\u2581grief": 5264,
  "\u2581length": 5265,
  "\u2581mention": 5266,
  "\u2581stood": 5267,
  "\u2581upate": 5268,
  "\u2581ushauri": 5269,
  "\u2581waweza": 5270,
  "\u2581wickedness": 5271,
  "Look": 5272,
  "\u2581Kulikuwa": 5273,
  "\u2581Nabii": 5274,
  "\u2581Ramani": 5275,
  "\u2581access": 5276,
  "\u2581difficulties": 5277,
  "\u2581ice": 5278,
  "\u2581k": 5279,
  "\u2581kavu": 5280,
  "\u2581kujifurahisha": 5281,
  "\u2581mbwa": 5282,
  "\u2581requirements": 5283,
  "\u2581signs": 5284,
  "\u2581spirituality": 5285,
  "\u2581tata": 5286,
  "ngo": 5287,
  "nt": 5288,
  "\u2581anga": 5289,
  "\u2581technology": 5290,
  "TA": 5291,
  "\u2581Asanteni": 5292,
  "\u2581anxious": 5293,
  "\u2581atmosphere": 5294,
  "\u2581experts": 5295,
  "\u2581huishi": 5296,
  "\u2581mbuzi": 5297,
  "\u2581ministers": 5298,
  "\u2581mshikamanifu": 5299,
  "\u2581sickness": 5300,
  "\u2581sukari": 5301,
  "ING": 5302,
  "ondoka": 5303,
  "\u25811919": 5304,
  "\u2581adili": 5305,
  "\u2581aged": 5306,
  "\u2581kutayarisha": 5307,
  "\u2581matakwa": 5308,
  "\u2581udanganyifu": 5309,
  "\u2581ukuzi": 5310,
  "\u2581watawala": 5311,
  "furahi": 5312,
  "ny": 5313,
  "\u2581Esther": 5314,
  "\u2581Inafundisha": 5315,
  "\u2581Jiji": 5316,
  "\u2581Punde": 5317,
  "\u2581add": 5318,
  "\u2581communicate": 5319,
  "\u2581considering": 5320,
  "\u2581kipekee": 5321,
  "\u2581kupewa": 5322,
  "\u2581pembe": 5323,
  "\u2581sinful": 5324,
  "lala": 5325,
  "wafundisha": 5326,
  "\u2581Haki": 5327,
  "\u2581Kutaniko": 5328,
  "\u2581Yona": 5329,
  "\u2581hadharani": 5330,
  "\u2581kujitolea": 5331,
  "\u2581lower": 5332,
  "\u2581ujitoaji": 5333,
  "\u2581vinaweza": 5334,
  "\u2581wazao": 5335,
  "\u2581wood": 5336,
  "ist": 5337,
  "lijaribu": 5338,
  "tayarisha": 5339,
  "\u2581Christmas": 5340,
  "\u2581Mwalimu": 5341,
  "\u2581Whatever": 5342,
  "\u2581aibu": 5343,
  "\u2581fit": 5344,
  "\u2581kurasa": 5345,
  "\u2581replied": 5346,
  "\u2581victim": 5347,
  "\u258144.": 5348,
  "\u2581Often": 5349,
  "\u2581gesi": 5350,
  "\u2581jijini": 5351,
  "\u2581risasi": 5352,
  "\u2581sad": 5353,
  "\u2581vyovyote": 5354,
  "tutia": 5355,
  "\u2581BE": 5356,
  "\u2581Machi": 5357,
  "\u2581Nchini": 5358,
  "\u2581Russian": 5359,
  "\u2581abandoned": 5360,
  "\u2581kuwaambia": 5361,
  "\u2581marry": 5362,
  "\u2581none": 5363,
  "\u2581penye": 5364,
  "\u2581suicide": 5365,
  "\u2581tax": 5366,
  "andika": 5367,
  "su": 5368,
  "\u25811996": 5369,
  "\u2581Human": 5370,
  "\u2581Juni": 5371,
  "\u2581Library": 5372,
  "\u2581Nani": 5373,
  "\u2581Nehemia": 5374,
  "\u2581Never": 5375,
  "\u2581apparently": 5376,
  "\u2581arranged": 5377,
  "\u2581completed": 5378,
  "\u2581generation": 5379,
  "\u2581kuuawa": 5380,
  "\u2581occasions": 5381,
  "\u2581proof": 5382,
  "\u2581unusual": 5383,
  "\u2581watapata": 5384,
  "men": 5385,
  "utazama": 5386,
  "\u2581Yana": 5387,
  "\u2581critical": 5388,
  "\u2581labor": 5389,
  "\u2581quick": 5390,
  "\u2581rights": 5391,
  "\u2581threat": 5392,
  "\u2581Nathan": 5393,
  "\u2581feed": 5394,
  "\u2581lenu": 5395,
  "\u2581muungano": 5396,
  "\u2581reputation": 5397,
  "\u2581somo": 5398,
  "\u2581survey": 5399,
  "haribiwa": 5400,
  "kurasa": 5401,
  "uza": 5402,
  "\u2581Kor": 5403,
  "\u2581Nime": 5404,
  "\u2581increasing": 5405,
  "\u2581kumwabudu": 5406,
  "\u2581yasema": 5407,
  "litambua": 5408,
  "nifanya": 5409,
  "\u2581Gal": 5410,
  "\u2581Hosea": 5411,
  "\u2581Jonah": 5412,
  "\u2581alihitaji": 5413,
  "\u2581kujali": 5414,
  "\u2581kuongea": 5415,
  "\u2581secure": 5416,
  "\u2581ukatili": 5417,
  "\u2581vikali": 5418,
  "\u2581wondered": 5419,
  "Jesus": 5420,
  "\u2581kutazamia": 5421,
  "\u2581standard": 5422,
  "\u2581store": 5423,
  "\u2581zozote": 5424,
  "im": 5425,
  "tengeneza": 5426,
  "\u25813,000": 5427,
  "\u258134,": 5428,
  "\u2581Halls": 5429,
  "\u2581Lina": 5430,
  "\u2581kuendesha": 5431,
  "\u2581witnessing": 5432,
  "\u2581yange": 5433,
  "abudu": 5434,
  "hifadhi": 5435,
  "\u2581Muungano": 5436,
  "\u2581Nehemiah": 5437,
  "\u2581Oktoba": 5438,
  "\u2581Students": 5439,
  "\u2581alisali": 5440,
  "\u2581bakteria": 5441,
  "\u2581degree": 5442,
  "\u2581green": 5443,
  "\u2581influenced": 5444,
  "\u2581inhabited": 5445,
  "\u2581kuabudu": 5446,
  "\u2581nyanya": 5447,
  "\u2581plans": 5448,
  "\u2581prophetic": 5449,
  "\u2581sand": 5450,
  "\u2581sold": 5451,
  "\u2581throne": 5452,
  "\u2581turning": 5453,
  "am": 5454,
  "ber": 5455,
  "\u2581Ame": 5456,
  "\u2581Island": 5457,
  "\u2581Out": 5458,
  "\u2581Profes": 5459,
  "\u2581Science": 5460,
  "\u2581arms": 5461,
  "\u2581kuwaeleza": 5462,
  "\u2581marekebisho": 5463,
  "\u2581removed": 5464,
  "\u2581ukuta": 5465,
  "\u2581won": 5466,
  "\u25812006": 5467,
  "\u2581Tract": 5468,
  "\u2581Wataalamu": 5469,
  "\u2581eager": 5470,
  "\u2581evolution": 5471,
  "\u2581kukusanya": 5472,
  "\u2581simba": 5473,
  "\u2581street": 5474,
  "\u2581zinge": 5475,
  "et": 5476,
  "fanyia": 5477,
  "land": 5478,
  "mpenda": 5479,
  "oa": 5480,
  "tukia": 5481,
  "\u2581AIDS": 5482,
  "\u2581Columbia": 5483,
  "\u2581November": 5484,
  "\u2581alikataa": 5485,
  "\u2581attendance": 5486,
  "\u2581dhiki": 5487,
  "\u2581heed": 5488,
  "\u2581kinaweza": 5489,
  "\u2581kumwomba": 5490,
  "\u2581kuolewa": 5491,
  "\u2581mizigo": 5492,
  "\u2581zinaonyesha": 5493,
  "keti": 5494,
  "so": 5495,
  "\u2581Munar": 5496,
  "\u2581Watching": 5497,
  "\u2581ileile": 5498,
  "\u2581properly": 5499,
  "\u2581shambani": 5500,
  "\u2581tunda": 5501,
  "\u2581wilaya": 5502,
  "\u2581Aliandika": 5503,
  "\u2581Esau": 5504,
  "\u2581Kilatini": 5505,
  "\u2581Luther": 5506,
  "\u2581wear": 5507,
  "hitajiwa": 5508,
  "ract": 5509,
  "\u2581Kuanzi": 5510,
  "\u2581Mtoto": 5511,
  "\u2581conducted": 5512,
  "\u2581diet": 5513,
  "\u2581finished": 5514,
  "\u2581islands": 5515,
  "\u2581joyful": 5516,
  "\u2581kifungo": 5517,
  "\u2581kuwahubiria": 5518,
  "\u2581kuwe": 5519,
  "\u2581moon": 5520,
  "\u2581refuge": 5521,
  "Kila": 5522,
  "patao": 5523,
  "sali": 5524,
  "tuma": 5525,
  "\u2581Art": 5526,
  "\u2581Chinese": 5527,
  "\u2581Hekima": 5528,
  "\u2581Old": 5529,
  "\u2581Pind": 5530,
  "\u2581Walio": 5531,
  "\u2581darasa": 5532,
  "\u2581hangeweza": 5533,
  "\u2581hate": 5534,
  "\u2581hiyohiyo": 5535,
  "\u2581kizuri": 5536,
  "\u2581kutosheleza": 5537,
  "\u2581provisions": 5538,
  "\u2581rebellion": 5539,
  "\u2581wanaotaka": 5540,
  "\u2581yenyewe": 5541,
  "Watu": 5542,
  "ner": 5543,
  "vumilia": 5544,
  "\u2581Mulinzi": 5545,
  "\u2581bird": 5546,
  "\u2581fields": 5547,
  "\u2581kuhangaikia": 5548,
  "\u2581kumwambia": 5549,
  "\u2581kuvi": 5550,
  "\u2581makusanyiko": 5551,
  "\u2581mmea": 5552,
  "\u2581selfish": 5553,
  "\u2581soma": 5554,
  "\u2581stake": 5555,
  "\u2581struck": 5556,
  "\u2581ufundi": 5557,
  "\u2581wasomi": 5558,
  "\u2581willingly": 5559,
  "ous": 5560,
  "\u2581120": 5561,
  "\u2581Journal": 5562,
  "\u2581abundant": 5563,
  "\u2581alizaliwa": 5564,
  "\u2581cross": 5565,
  "\u2581kuvaa": 5566,
  "\u2581nishati": 5567,
  "\u2581vifo": 5568,
  "\u2581writers": 5569,
  "ig": 5570,
  "jili": 5571,
  "\u258101": 5572,
  "\u258156": 5573,
  "\u2581Enzi": 5574,
  "\u2581broke": 5575,
  "\u2581mapendeleo": 5576,
  "\u2581minne": 5577,
  "\u2581nane": 5578,
  "\u2581resulted": 5579,
  "\u2581scene": 5580,
  "\u2581snow": 5581,
  "\u2581February": 5582,
  "\u2581Lake": 5583,
  "\u2581ama": 5584,
  "\u2581dream": 5585,
  "\u2581fursa": 5586,
  "\u2581looks": 5587,
  "\u2581mchezo": 5588,
  "\u2581printed": 5589,
  "\u2581sikuwa": 5590,
  "\u2581tunavyo": 5591,
  "\u2581wavulana": 5592,
  "\u258166": 5593,
  "\u2581Death": 5594,
  "\u2581Eleza": 5595,
  "\u2581Isa": 5596,
  "\u2581Vilevile": 5597,
  "\u2581approached": 5598,
  "\u2581brief": 5599,
  "\u2581calm": 5600,
  "\u2581challenging": 5601,
  "\u2581facing": 5602,
  "\u2581harufu": 5603,
  "\u2581kurudia": 5604,
  "\u2581kuwatendea": 5605,
  "\u2581modest": 5606,
  "\u2581remaining": 5607,
  "\u2581routine": 5608,
  "\u2581suddenly": 5609,
  "\u2581wangekuwa": 5610,
  "\u2581West": 5611,
  "\u2581companion": 5612,
  "\u2581focused": 5613,
  "\u2581impact": 5614,
  "\u2581mabaki": 5615,
  "\u2581officials": 5616,
  "\u2581southern": 5617,
  "\u2581wilderness": 5618,
  "ongeza": 5619,
  "\u2581Bu": 5620,
  "\u2581Martin": 5621,
  "\u2581Researchers": 5622,
  "\u2581motivated": 5623,
  "\u2581relations": 5624,
  "lipoanza": 5625,
  "ndi": 5626,
  "\u2581Di": 5627,
  "\u2581Henry": 5628,
  "\u2581Hitler": 5629,
  "\u2581Mmoja": 5630,
  "\u2581acted": 5631,
  "\u2581advance": 5632,
  "\u2581baya": 5633,
  "\u2581deaf": 5634,
  "\u2581lifestyle": 5635,
  "\u2581miracles": 5636,
  "\u2581root": 5637,
  "\u2581royal": 5638,
  "\u2581smoking": 5639,
  "enea": 5640,
  "fanyiwa": 5641,
  "ogopa": 5642,
  "unganisha": 5643,
  "\u2581Kutumia": 5644,
  "\u2581Sam": 5645,
  "\u2581Union": 5646,
  "\u2581aspect": 5647,
  "\u2581assembly": 5648,
  "\u2581calling": 5649,
  "\u2581customs": 5650,
  "\u2581exposed": 5651,
  "\u2581kinyume": 5652,
  "\u2581kuhani": 5653,
  "\u2581liko": 5654,
  "\u2581memory": 5655,
  "\u2581observes": 5656,
  "\u2581ships": 5657,
  "\u2581walitaka": 5658,
  "ff": 5659,
  "letwa": 5660,
  "\u2581Red": 5661,
  "\u2581Wanyama": 5662,
  "\u2581accomplished": 5663,
  "\u2581chapters": 5664,
  "\u2581firmly": 5665,
  "\u2581hauku": 5666,
  "\u2581kimakusudi": 5667,
  "\u2581marvelous": 5668,
  "\u2581readily": 5669,
  "AL": 5670,
  "aba": 5671,
  "mwogopa": 5672,
  "zilizoorodheshwa": 5673,
  "\u2581Armageddon": 5674,
  "\u2581madini": 5675,
  "\u2581represent": 5676,
  "ED": 5677,
  "endesha": 5678,
  "tafute": 5679,
  "umba": 5680,
  "\u2581Eneo": 5681,
  "\u2581Name": 5682,
  "\u2581aksidenti": 5683,
  "\u2581haiwezi": 5684,
  "\u2581holding": 5685,
  "\u2581kinga": 5686,
  "\u2581kwaweza": 5687,
  "\u2581mass": 5688,
  "\u2581mchungaji": 5689,
  "\u2581suggests": 5690,
  "\u2581wakulima": 5691,
  "\u2581ziada": 5692,
  "itihada": 5693,
  "les": 5694,
  "\u2581Historia": 5695,
  "\u2581Mtunga": 5696,
  "\u2581Wathesalonike": 5697,
  "\u2581habit": 5698,
  "\u2581isivyo": 5699,
  "\u2581location": 5700,
  "\u2581stories": 5701,
  "\u2581tunaona": 5702,
  "\u2581weapons": 5703,
  "LE": 5704,
  "\u2581Agano": 5705,
  "\u2581Flood": 5706,
  "\u2581fresh": 5707,
  "\u2581kumwiga": 5708,
  "\u2581kuongezea": 5709,
  "\u2581market": 5710,
  "\u2581mild": 5711,
  "\u2581principal": 5712,
  "\u2581quit": 5713,
  "\u2581types": 5714,
  "\u2581watakatifu": 5715,
  "\u2581Ezra": 5716,
  "\u2581Wagiriki": 5717,
  "\u2581haliku": 5718,
  "\u2581kuangalia": 5719,
  "\u2581kujikaza": 5720,
  "\u2581kukimbia": 5721,
  "\u2581kupuuza": 5722,
  "\u2581kushoto": 5723,
  "\u2581mayai": 5724,
  "\u2581possibly": 5725,
  "\u2581supported": 5726,
  "\u2581tunapata": 5727,
  "\u2581wastani": 5728,
  "kufa": 5729,
  "\u2581differ": 5730,
  "\u2581gratitude": 5731,
  "\u2581inapaswa": 5732,
  "\u2581insects": 5733,
  "\u2581kizazi": 5734,
  "\u2581kusafisha": 5735,
  "\u2581meaningful": 5736,
  "\u2581space": 5737,
  "\u2581uradhi": 5738,
  "\u2581wenzangu": 5739,
  "\u2581Austria": 5740,
  "\u2581claimed": 5741,
  "\u2581encourages": 5742,
  "\u2581historian": 5743,
  "\u2581shepherds": 5744,
  "\u2581smoke": 5745,
  "\u2581wachungaji": 5746,
  "con": 5747,
  "for": 5748,
  "pasa": 5749,
  "ster": 5750,
  "\u2581600": 5751,
  "\u2581Early": 5752,
  "\u2581Nilifurahi": 5753,
  "\u2581Says": 5754,
  "\u2581conscious": 5755,
  "\u2581contained": 5756,
  "\u2581ears": 5757,
  "\u2581kamilifu": 5758,
  "\u2581kimuujiza": 5759,
  "\u2581milimani": 5760,
  "\u2581reflected": 5761,
  "\u2581sikukuu": 5762,
  "\u2581warns": 5763,
  "fanyiza": 5764,
  "lifurahia": 5765,
  "pungua": 5766,
  "\u2581Thomas": 5767,
  "\u2581ajifunze": 5768,
  "\u2581compare": 5769,
  "\u2581intense": 5770,
  "\u2581kunamaanisha": 5771,
  "\u2581laini": 5772,
  "\u2581limit": 5773,
  "\u2581mashambani": 5774,
  "\u2581umma": 5775,
  "\u2581watching": 5776,
  "Wakati": 5777,
  "cy": 5778,
  "rejelea": 5779,
  "\u258138.": 5780,
  "\u2581Source": 5781,
  "\u2581aliyetajwa": 5782,
  "\u2581dwell": 5783,
  "\u2581happening": 5784,
  "\u2581ila": 5785,
  "\u2581invite": 5786,
  "\u2581muongozo": 5787,
  "\u2581rulers": 5788,
  "\u2581thereafter": 5789,
  "funika": 5790,
  "some": 5791,
  "watia": 5792,
  "\u25811960": 5793,
  "\u258149": 5794,
  "\u2581Co": 5795,
  "\u2581Granted": 5796,
  "\u2581MA": 5797,
  "\u2581Thessalonians": 5798,
  "\u2581kumbuka": 5799,
  "\u2581stick": 5800,
  "\u2581thanks": 5801,
  "\u2581upanga": 5802,
  "\u2581worshipers": 5803,
  "\u2581zilizokuwa": 5804,
  "will": 5805,
  "\u2581Bo": 5806,
  "\u2581Eli": 5807,
  "\u2581Utawala": 5808,
  "\u2581Yetu": 5809,
  "\u2581arise": 5810,
  "\u2581discern": 5811,
  "\u2581kushughulika": 5812,
  "\u2581mbio": 5813,
  "\u2581plague": 5814,
  "\u2581pounds": 5815,
  "ever": 5816,
  "\u2581Draw": 5817,
  "\u2581Toa": 5818,
  "\u2581hupenda": 5819,
  "\u2581kifani": 5820,
  "\u2581papa": 5821,
  "\u2581privileges": 5822,
  "\u2581volunteers": 5823,
  "As": 5824,
  "geuka": 5825,
  "kusanya": 5826,
  "\u25811980": 5827,
  "\u258153": 5828,
  "\u2581Kifo": 5829,
  "\u2581Mbele": 5830,
  "\u2581dress": 5831,
  "\u2581invisible": 5832,
  "\u2581kuumiza": 5833,
  "\u2581otherwise": 5834,
  "\u2581safina": 5835,
  "\u2581ulipo": 5836,
  "\u2581weigh": 5837,
  "shwa": 5838,
  "\u258130:": 5839,
  "\u2581Surely": 5840,
  "\u2581alim": 5841,
  "\u2581broken": 5842,
  "\u2581indefinite": 5843,
  "\u2581kumpendeza": 5844,
  "\u2581viini": 5845,
  "\u2581walijua": 5846,
  "\u2581watafiti": 5847,
  "ruhusiwa": 5848,
  "tambue": 5849,
  "\u258131,": 5850,
  "\u2581Takatifu": 5851,
  "\u2581attempt": 5852,
  "\u2581drive": 5853,
  "\u2581fornication": 5854,
  "\u2581kukawia": 5855,
  "\u2581rendered": 5856,
  "\u2581ujana": 5857,
  "\u2581viewpoint": 5858,
  "Mtu": 5859,
  "\u2581Ata": 5860,
  "\u2581Kisiwa": 5861,
  "\u2581Web": 5862,
  "\u2581buildings": 5863,
  "\u2581figure": 5864,
  "\u2581inafundisha": 5865,
  "\u2581kumtegemea": 5866,
  "\u2581mandhari": 5867,
  "\u2581nilipata": 5868,
  "\u2581radio": 5869,
  "\u2581running": 5870,
  "\u2581song": 5871,
  "\u2581square": 5872,
  "\u2581widely": 5873,
  "wakilisha": 5874,
  "\u258139.": 5875,
  "\u2581Karen": 5876,
  "\u2581Njema": 5877,
  "\u2581Recall": 5878,
  "\u2581Stephen": 5879,
  "\u2581Up": 5880,
  "\u2581kusisimua": 5881,
  "\u2581namba": 5882,
  "Keep": 5883,
  "vo": 5884,
  "\u25811995": 5885,
  "\u2581Magedoni": 5886,
  "\u2581creature": 5887,
  "\u2581disasters": 5888,
  "\u2581dust": 5889,
  "\u2581kichapo": 5890,
  "\u2581kuwaona": 5891,
  "\u2581mashine": 5892,
  "\u2581mavuno": 5893,
  "\u2581mwetu": 5894,
  "\u2581traffic": 5895,
  "\u2581zinapo": 5896,
  "\u2581Almighty": 5897,
  "\u2581Knorr": 5898,
  "\u2581accident": 5899,
  "\u2581associate": 5900,
  "\u2581commission": 5901,
  "\u2581commit": 5902,
  "\u2581nilivyo": 5903,
  "\u2581nyasi": 5904,
  "\u2581thawabu": 5905,
  "\u2581vyumba": 5906,
  "tafsiri": 5907,
  "\u2581Ambay": 5908,
  "\u2581Chanzo": 5909,
  "\u2581Chronicles": 5910,
  "\u2581Se": 5911,
  "\u2581frequently": 5912,
  "\u2581inheritance": 5913,
  "\u2581kufahamu": 5914,
  "\u2581mildness": 5915,
  "\u2581motivate": 5916,
  "\u2581origin": 5917,
  "\u2581permanent": 5918,
  "\u2581reliable": 5919,
  "\u2581tafrija": 5920,
  "\u2581temporary": 5921,
  "\u2581win": 5922,
  "They": 5923,
  "ot": 5924,
  "\u258110,000": 5925,
  "\u2581Ibada": 5926,
  "\u2581Western": 5927,
  "\u2581aliacha": 5928,
  "\u2581hila": 5929,
  "\u2581kiangazi": 5930,
  "\u2581kumtii": 5931,
  "\u2581solid": 5932,
  "\u2581takataka": 5933,
  "\u2581traits": 5934,
  "furahie": 5935,
  "kimbia": 5936,
  "\u258137.": 5937,
  "\u2581Bora": 5938,
  "\u2581Close": 5939,
  "\u2581Institute": 5940,
  "\u2581Met": 5941,
  "\u2581THIS": 5942,
  "\u2581Truth": 5943,
  "\u2581chetu": 5944,
  "\u2581childhood": 5945,
  "\u2581involving": 5946,
  "\u2581kutokamilika": 5947,
  "\u2581mazao": 5948,
  "\u2581misuli": 5949,
  "\u2581protected": 5950,
  "\u2581spending": 5951,
  "asimulizi": 5952,
  "fungwa": 5953,
  "mbo": 5954,
  "paswi": 5955,
  "\u2581Ba": 5956,
  "\u2581Mufano": 5957,
  "\u2581dwelling": 5958,
  "\u2581employment": 5959,
  "\u2581features": 5960,
  "\u2581kimbele": 5961,
  "\u2581kote": 5962,
  "\u2581kuwekwa": 5963,
  "\u2581madhabahu": 5964,
  "\u2581mhudumu": 5965,
  "\u2581seeds": 5966,
  "mwona": 5967,
  "\u25811945": 5968,
  "\u2581Hannah": 5969,
  "\u2581Ta": 5970,
  "\u2581isolated": 5971,
  "\u2581kamba": 5972,
  "\u2581kutaja": 5973,
  "\u2581possess": 5974,
  "\u2581south": 5975,
  "\u2581translations": 5976,
  "\u2581typical": 5977,
  "husiana": 5978,
  "\u258135:": 5979,
  "\u2581Mwanamume": 5980,
  "\u2581Shortly": 5981,
  "\u2581Upon": 5982,
  "\u2581Wanaweza": 5983,
  "\u2581kumbukumbu": 5984,
  "\u2581kuwalinda": 5985,
  "\u2581pepo": 5986,
  "\u2581repeatedly": 5987,
  "\u2581walihitaji": 5988,
  "\u2581watawa": 5989,
  "Nime": 5990,
  "fe": 5991,
  "\u2581Greece": 5992,
  "\u2581Hayo": 5993,
  "\u2581Kiyahudi": 5994,
  "\u2581Mahali": 5995,
  "\u2581Mume": 5996,
  "\u2581Ndani": 5997,
  "\u2581Prov": 5998,
  "\u2581attitudes": 5999,
  "\u2581disorder": 6000,
  "\u2581kufufuliwa": 6001,
  "\u2581kujaz": 6002,
  "\u2581kuzeeka": 6003,
  "\u2581machafu": 6004,
  "\u2581media": 6005,
  "\u2581moves": 6006,
  "\u2581painful": 6007,
  "\u2581pasipo": 6008,
  "\u2581popote": 6009,
  "\u2581preced": 6010,
  "\u2581recall": 6011,
  "\u2581residents": 6012,
  "\u2581slavery": 6013,
  "\u25812007": 6014,
  "\u2581Tunahitaji": 6015,
  "\u2581Within": 6016,
  "\u2581abilities": 6017,
  "\u2581atafanya": 6018,
  "\u2581bottom": 6019,
  "\u2581demonstrated": 6020,
  "\u2581hawajui": 6021,
  "\u2581kumsifu": 6022,
  "\u2581kuuza": 6023,
  "\u2581ran": 6024,
  "\u2581ruling": 6025,
  "\u2581sinned": 6026,
  "\u2581tribes": 6027,
  "kubaliana": 6028,
  "wazia": 6029,
  "\u2581Anna": 6030,
  "\u2581Besides": 6031,
  "\u2581Empire": 6032,
  "\u2581adabu": 6033,
  "\u2581choices": 6034,
  "\u2581descendants": 6035,
  "\u2581flowers": 6036,
  "\u2581gather": 6037,
  "\u2581hutusaidia": 6038,
  "\u2581kuunga": 6039,
  "\u2581laid": 6040,
  "\u2581punishment": 6041,
  "\u2581qualified": 6042,
  "\u2581tupate": 6043,
  "\u2581zipi": 6044,
  "em": 6045,
  "fananisha": 6046,
  "hamia": 6047,
  "vutia": 6048,
  "\u2581Him": 6049,
  "\u2581Living": 6050,
  "\u2581Pi": 6051,
  "\u2581Soviet": 6052,
  "\u2581anaonyesha": 6053,
  "\u2581dignity": 6054,
  "\u2581glad": 6055,
  "\u2581grain": 6056,
  "\u2581milk": 6057,
  "\u2581mwaliko": 6058,
  "\u2581property": 6059,
  "\u2581ustahimilivu": 6060,
  "Z": 6061,
  "furahisha": 6062,
  "hangaikia": 6063,
  "ondolewa": 6064,
  "tumaini": 6065,
  "\u25812013": 6066,
  "\u2581607": 6067,
  "\u2581Jifunze": 6068,
  "\u2581Maana": 6069,
  "\u2581Mo": 6070,
  "\u2581Moscow": 6071,
  "\u2581Muumbaji": 6072,
  "\u2581Mwandishi": 6073,
  "\u2581alichukua": 6074,
  "\u2581establish": 6075,
  "\u2581mauaji": 6076,
  "\u2581sustain": 6077,
  "\u2581wanyoofu": 6078,
  "chi": 6079,
  "epuke": 6080,
  "fanana": 6081,
  "\u25811940": 6082,
  "\u25811990": 6083,
  "\u2581Get": 6084,
  "\u2581Inawezekana": 6085,
  "\u2581Sovieti": 6086,
  "\u2581alert": 6087,
  "\u2581co": 6088,
  "\u2581depends": 6089,
  "\u2581foundation": 6090,
  "\u2581kuuliza": 6091,
  "\u2581mine": 6092,
  "\u2581nacho": 6093,
  "\u2581price": 6094,
  "\u2581spirits": 6095,
  "\u2581visits": 6096,
  "\u2581waishi": 6097,
  "by": 6098,
  "\u2581Doing": 6099,
  "\u2581Kujua": 6100,
  "\u2581Organization": 6101,
  "\u2581Ukweli": 6102,
  "\u2581Utatu": 6103,
  "\u2581courageous": 6104,
  "\u2581discouraged": 6105,
  "\u2581kuharibiwa": 6106,
  "\u2581mwangu": 6107,
  "\u2581scholar": 6108,
  "\u2581tunapenda": 6109,
  "\u2581tunavyoweza": 6110,
  "gunduliwa": 6111,
  "tafakari": 6112,
  "\u2581Hesabu": 6113,
  "\u2581Lot": 6114,
  "\u2581Lu": 6115,
  "\u2581Ministry": 6116,
  "\u2581differences": 6117,
  "\u2581identity": 6118,
  "\u2581kujulikana": 6119,
  "\u2581lilisema": 6120,
  "\u2581mlo": 6121,
  "\u2581proud": 6122,
  "\u2581scale": 6123,
  "RI": 6124,
  "unganishwa": 6125,
  "\u25811930": 6126,
  "\u2581Mafarisayo": 6127,
  "\u2581Use": 6128,
  "\u2581alienda": 6129,
  "\u2581ardhini": 6130,
  "\u2581audience": 6131,
  "\u2581inayoonyesha": 6132,
  "\u2581mita": 6133,
  "\u2581nyinginezo": 6134,
  "\u2581opinion": 6135,
  "\u2581passing": 6136,
  "\u2581unataka": 6137,
  "\u2581waandishi": 6138,
  "chukuliwa": 6139,
  "kufanya": 6140,
  "om": 6141,
  "\u2581HOW": 6142,
  "\u2581NASA": 6143,
  "\u2581Peace": 6144,
  "\u2581adultery": 6145,
  "\u2581alimuambia": 6146,
  "\u2581distant": 6147,
  "\u2581gets": 6148,
  "\u2581hatuku": 6149,
  "\u2581intended": 6150,
  "\u2581interesting": 6151,
  "\u2581kufaidika": 6152,
  "\u2581kuume": 6153,
  "\u2581mahakama": 6154,
  "\u2581mapendezi": 6155,
  "\u2581method": 6156,
  "\u2581mutumwa": 6157,
  "\u2581neva": 6158,
  "\u2581niliona": 6159,
  "\u2581possessions": 6160,
  "\u2581quiet": 6161,
  "ran": 6162,
  "\u2581Ben": 6163,
  "\u2581bound": 6164,
  "\u2581empty": 6165,
  "\u2581feature": 6166,
  "\u2581kimo": 6167,
  "\u2581levels": 6168,
  "\u2581mail": 6169,
  "\u2581production": 6170,
  "\u2581provision": 6171,
  "\u2581waweze": 6172,
  "AN": 6173,
  "\u2581Court": 6174,
  "\u2581Kale": 6175,
  "\u2581Maandishi": 6176,
  "\u2581Professor": 6177,
  "\u2581Ra": 6178,
  "\u2581Sydney": 6179,
  "\u2581Ujuzi": 6180,
  "\u2581Yoh": 6181,
  "\u2581declare": 6182,
  "\u2581district": 6183,
  "\u2581forests": 6184,
  "\u2581hula": 6185,
  "\u2581kuridhisha": 6186,
  "\u2581meat": 6187,
  "\u2581motokari": 6188,
  "\u2581pick": 6189,
  "\u2581pleasant": 6190,
  "\u2581reasoning": 6191,
  "\u2581siasa": 6192,
  "\u2581stayed": 6193,
  "\u2581suggested": 6194,
  "\u2581uelewaji": 6195,
  "\u2581unaona": 6196,
  "ized": 6197,
  "kusudiwa": 6198,
  "meazimia": 6199,
  "\u2581AS": 6200,
  "\u2581Athens": 6201,
  "\u2581Hatari": 6202,
  "\u2581Pacific": 6203,
  "\u2581anymore": 6204,
  "\u2581asks": 6205,
  "\u2581dhoruba": 6206,
  "\u2581fundamental": 6207,
  "\u2581hufurahia": 6208,
  "\u2581literally": 6209,
  "\u2581professor": 6210,
  "\u2581sang": 6211,
  "\u2581wamepata": 6212,
  "\u2581wipe": 6213,
  "\u2581worthy": 6214,
  "\u2581yamebadilishwa": 6215,
  "ex": 6216,
  "\u2581Ar": 6217,
  "\u2581Hii": 6218,
  "\u2581Lili": 6219,
  "\u2581kubadilisha": 6220,
  "\u2581kuki": 6221,
  "\u2581kutetea": 6222,
  "\u2581refuse": 6223,
  "\u2581wakifanya": 6224,
  "almashauri": 6225,
  "najitahidi": 6226,
  "pitisha": 6227,
  "uliza": 6228,
  "\u258109": 6229,
  "\u2581Loti": 6230,
  "\u2581Majibu": 6231,
  "\u2581Pamoja": 6232,
  "\u2581adre": 6233,
  "\u2581baiskeli": 6234,
  "\u2581dansi": 6235,
  "\u2581director": 6236,
  "\u2581linaripoti": 6237,
  "\u2581lovers": 6238,
  "\u2581mid": 6239,
  "\u2581native": 6240,
  "\u2581prominent": 6241,
  "\u2581raha": 6242,
  "\u2581raising": 6243,
  "\u2581texts": 6244,
  "\u2581utimizo": 6245,
  "jikaza": 6246,
  "sitawi": 6247,
  "\u258136.": 6248,
  "\u258147": 6249,
  "\u2581Concern": 6250,
  "\u2581Marriage": 6251,
  "\u2581Try": 6252,
  "\u2581affairs": 6253,
  "\u2581anakumbuka": 6254,
  "\u2581cm": 6255,
  "\u2581ignore": 6256,
  "\u2581ine": 6257,
  "\u2581kusahau": 6258,
  "\u2581mikazo": 6259,
  "\u2581ought": 6260,
  "\u2581tests": 6261,
  "\u2581threatened": 6262,
  "\u2581walikuja": 6263,
  "elezwa": 6264,
  "kosea": 6265,
  "mw": 6266,
  "nge": 6267,
  "\u25811950": 6268,
  "\u2581Kitaifa": 6269,
  "\u2581Siri": 6270,
  "\u2581alimu": 6271,
  "\u2581bank": 6272,
  "\u2581extra": 6273,
  "\u2581farm": 6274,
  "\u2581mizizi": 6275,
  "\u2581speed": 6276,
  "\u2581systems": 6277,
  "\u2581table": 6278,
  "\u2581Beteli": 6279,
  "\u2581Gospels": 6280,
  "\u2581Krismasi": 6281,
  "\u2581Pentekoste": 6282,
  "\u2581alikazia": 6283,
  "\u2581aliyeitwa": 6284,
  "\u2581burning": 6285,
  "\u2581depressed": 6286,
  "\u2581kukaza": 6287,
  "\u2581mta": 6288,
  "\u2581mwako": 6289,
  "\u2581niwe": 6290,
  "\u2581obligation": 6291,
  "\u2581survived": 6292,
  "fikie": 6293,
  "fundishwa": 6294,
  "lin": 6295,
  "potea": 6296,
  "shukuru": 6297,
  "zungumziwa": 6298,
  "\u2581Nita": 6299,
  "\u2581Sweden": 6300,
  "\u2581adhabu": 6301,
  "\u2581chungu": 6302,
  "\u2581eliminate": 6303,
  "\u2581historical": 6304,
  "\u2581huhisi": 6305,
  "\u2581introduced": 6306,
  "\u2581majini": 6307,
  "\u2581missing": 6308,
  "\u2581review": 6309,
  "\u2581satisfied": 6310,
  "\u2581uchangamfu": 6311,
  "\u2581watenda": 6312,
  "chunguze": 6313,
  "dokeza": 6314,
  "of": 6315,
  "wasiliana": 6316,
  "zunguka": 6317,
  "\u2581Gu": 6318,
  "\u2581Milele": 6319,
  "\u2581Republic": 6320,
  "\u2581Te": 6321,
  "\u2581kumkaribia": 6322,
  "\u2581metal": 6323,
  "\u2581referring": 6324,
  "\u2581uzinzi": 6325,
  "\u2581vizuizi": 6326,
  "&": 6327,
  "husika": 6328,
  "imarisha": 6329,
  "waambia": 6330,
  "\u25811993": 6331,
  "\u2581HIV": 6332,
  "\u2581Inayo": 6333,
  "\u2581Pharisees": 6334,
  "\u2581Show": 6335,
  "\u2581aliweka": 6336,
  "\u2581altar": 6337,
  "\u2581hatuta": 6338,
  "\u2581host": 6339,
  "\u2581ifaavyo": 6340,
  "\u2581kamari": 6341,
  "\u2581larger": 6342,
  "\u2581leader": 6343,
  "\u2581muzee": 6344,
  "\u2581nguzo": 6345,
  "\u2581obtained": 6346,
  "\u2581ocean": 6347,
  "\u2581represented": 6348,
  "\u2581restored": 6349,
  "\u2581telephone": 6350,
  "\u2581wimbo": 6351,
  "cheza": 6352,
  "hali": 6353,
  "io": 6354,
  "\u2581Georgia": 6355,
  "\u2581Novemba": 6356,
  "\u2581Samaria": 6357,
  "\u2581assurance": 6358,
  "\u2581capable": 6359,
  "\u2581kasisi": 6360,
  "\u2581kujilinda": 6361,
  "\u2581kuwatunza": 6362,
  "\u2581ziwe": 6363,
  "aasisi": 6364,
  "rd": 6365,
  "\u2581Februari": 6366,
  "\u2581Three": 6367,
  "\u2581Vitabu": 6368,
  "\u2581alifundisha": 6369,
  "\u2581arrested": 6370,
  "\u2581burned": 6371,
  "\u2581charge": 6372,
  "\u2581enjoying": 6373,
  "\u2581huendelea": 6374,
  "\u2581inclined": 6375,
  "\u2581kiasili": 6376,
  "\u2581kuzungumuzia": 6377,
  "\u2581mark": 6378,
  "\u2581mshahara": 6379,
  "\u2581mzito": 6380,
  "\u2581programs": 6381,
  "\u2581replaced": 6382,
  "\u2581tons": 6383,
  "\u2581utotoni": 6384,
  "\u2581waves": 6385,
  "fanyizwa": 6386,
  "ut": 6387,
  "\u2581Ningependa": 6388,
  "\u2581Unlike": 6389,
  "\u2581YEHOVA": 6390,
  "\u2581afterward": 6391,
  "\u2581armies": 6392,
  "\u2581assignments": 6393,
  "\u2581blue": 6394,
  "\u2581elements": 6395,
  "\u2581farmers": 6396,
  "\u2581gained": 6397,
  "\u2581kinds": 6398,
  "\u2581kumaanisha": 6399,
  "\u2581mjane": 6400,
  "\u2581pagan": 6401,
  "\u2581persecuted": 6402,
  "\u2581pieces": 6403,
  "\u2581worry": 6404,
  "\u2581Kondoo": 6405,
  "\u2581Promised": 6406,
  "\u2581Worship": 6407,
  "\u2581alivyofanya": 6408,
  "\u2581fun": 6409,
  "\u2581kilichokuwa": 6410,
  "\u2581movement": 6411,
  "\u2581paa": 6412,
  "\u2581prisoners": 6413,
  "\u2581reign": 6414,
  "\u2581uthamini": 6415,
  "\u2581visivyo": 6416,
  "\u258151": 6417,
  "\u2581IT": 6418,
  "\u2581Viewpoint": 6419,
  "\u2581changing": 6420,
  "\u2581check": 6421,
  "\u2581limitations": 6422,
  "\u2581mzaliw": 6423,
  "\u2581mzigo": 6424,
  "\u2581onto": 6425,
  "\u2581rivers": 6426,
  "\u2581shauku": 6427,
  "\u2581stones": 6428,
  "\u2581ulianza": 6429,
  "\u2581uongozi": 6430,
  "\u2581wahudumu": 6431,
  "\u2581wapinzani": 6432,
  "jiingiza": 6433,
  "mba": 6434,
  "\u2581IS": 6435,
  "\u2581Iwapo": 6436,
  "\u2581Lo": 6437,
  "\u2581Messianic": 6438,
  "\u2581Wisdom": 6439,
  "\u2581appeal": 6440,
  "\u2581exercising": 6441,
  "\u2581hujitahidi": 6442,
  "\u2581kumusaidia": 6443,
  "\u2581literal": 6444,
  "\u2581primarily": 6445,
  "\u2581shape": 6446,
  "\u2581speaker": 6447,
  "\u2581tribe": 6448,
  "\u2581twice": 6449,
  "\u2581waliyo": 6450,
  "onyeshe": 6451,
  "\u25812]": 6452,
  "\u2581Following": 6453,
  "\u2581Pentecost": 6454,
  "\u2581Religion": 6455,
  "\u2581Zechariah": 6456,
  "\u2581acknowledge": 6457,
  "\u2581benki": 6458,
  "\u2581explanation": 6459,
  "\u2581fighting": 6460,
  "\u2581hidden": 6461,
  "\u2581kijeshi": 6462,
  "\u2581kimya": 6463,
  "\u2581kitakacho": 6464,
  "\u2581kufanyiza": 6465,
  "\u2581kugusa": 6466,
  "\u2581lines": 6467,
  "\u2581union": 6468,
  "\u2581uzee": 6469,
  "\u2581wanaonyesha": 6470,
  "ali": 6471,
  "mwambia": 6472,
  "\u2581Aaron": 6473,
  "\u2581Britannica": 6474,
  "\u2581Elizabeth": 6475,
  "\u2581Hasa": 6476,
  "\u2581Sovereign": 6477,
  "\u2581Tafadhali": 6478,
  "\u2581Yudea": 6479,
  "\u2581Zekaria": 6480,
  "\u2581aendelee": 6481,
  "\u2581climate": 6482,
  "\u2581eti": 6483,
  "\u2581faithfulness": 6484,
  "\u2581income": 6485,
  "\u2581kutufundisha": 6486,
  "\u2581newly": 6487,
  "\u2581nilijifunza": 6488,
  "\u2581sake": 6489,
  "\u2581tunataka": 6490,
  "\u2581walikubali": 6491,
  "asi": 6492,
  "with": 6493,
  "\u2581Hai": 6494,
  "\u2581alimpa": 6495,
  "\u2581alipewa": 6496,
  "\u2581chasema": 6497,
  "\u2581citizens": 6498,
  "\u2581playing": 6499,
  "\u2581pressures": 6500,
  "\u2581surgery": 6501,
  "\u2581trusted": 6502,
  "\u2581vichwa": 6503,
  "Yesu": 6504,
  "du": 6505,
  "\u2581Lazaro": 6506,
  "\u2581Need": 6507,
  "\u2581Notice": 6508,
  "\u2581Rafiki": 6509,
  "\u2581corruption": 6510,
  "\u2581drawing": 6511,
  "\u2581glorious": 6512,
  "\u2581pregnant": 6513,
  "\u2581ukamilifu": 6514,
  "tafsiriwa": 6515,
  "tetea": 6516,
  "toweka": 6517,
  "waletea": 6518,
  "\u258183": 6519,
  "\u2581Daily": 6520,
  "\u2581Long": 6521,
  "\u2581Research": 6522,
  "\u2581Which": 6523,
  "\u2581afadhali": 6524,
  "\u2581capacity": 6525,
  "\u2581gathering": 6526,
  "\u2581jimbo": 6527,
  "\u2581kuiba": 6528,
  "\u2581kuthamini": 6529,
  "\u2581mabawa": 6530,
  "\u2581migawo": 6531,
  "\u2581mudogo": 6532,
  "\u2581producing": 6533,
  "\u2581product": 6534,
  "\u2581render": 6535,
  "\u2581rightly": 6536,
  "\u2581unavyoweza": 6537,
  "EN": 6538,
  "iga": 6539,
  "ngekuwa": 6540,
  "shikamana": 6541,
  "\u2581100,000": 6542,
  "\u2581Dictionary": 6543,
  "\u2581Egyptian": 6544,
  "\u2581Scripture": 6545,
  "\u2581acting": 6546,
  "\u2581alitenda": 6547,
  "\u2581arrangements": 6548,
  "\u2581divided": 6549,
  "\u2581fazili": 6550,
  "\u2581grass": 6551,
  "\u2581healing": 6552,
  "\u2581kibiashara": 6553,
  "\u2581kutarajia": 6554,
  "\u2581kutuchochea": 6555,
  "\u2581mupango": 6556,
  "\u2581tembo": 6557,
  "\u2581yanapo": 6558,
  "gen": 6559,
  "great": 6560,
  "hitajika": 6561,
  "if": 6562,
  "ika": 6563,
  "ler": 6564,
  "liwa": 6565,
  "\u2581Efeso": 6566,
  "\u2581Hezekia": 6567,
  "\u2581Milki": 6568,
  "\u2581Msaada": 6569,
  "\u2581Washington": 6570,
  "\u2581admits": 6571,
  "\u2581brotherhood": 6572,
  "\u2581contributed": 6573,
  "\u2581dating": 6574,
  "\u2581driving": 6575,
  "\u2581enable": 6576,
  "\u2581exert": 6577,
  "\u2581horse": 6578,
  "\u2581mfanyakazi": 6579,
  "anzishwa": 6580,
  "ikuwe": 6581,
  "simulia": 6582,
  "\u2581Baraka": 6583,
  "\u2581Ca": 6584,
  "\u2581Chakula": 6585,
  "\u2581Little": 6586,
  "\u2581Tayari": 6587,
  "\u2581awake": 6588,
  "\u2581benefited": 6589,
  "\u2581custom": 6590,
  "\u2581harsh": 6591,
  "\u2581journal": 6592,
  "\u2581kilio": 6593,
  "\u2581kutembelewa": 6594,
  "\u2581mia": 6595,
  "\u2581nyeupe": 6596,
  "\u2581outcome": 6597,
  "Be": 6598,
  "drew": 6599,
  "\u2581Len": 6600,
  "\u2581aliwa": 6601,
  "\u2581chuo": 6602,
  "\u2581claims": 6603,
  "\u2581commonly": 6604,
  "\u2581concentration": 6605,
  "\u2581inaelekea": 6606,
  "\u2581intelligent": 6607,
  "\u2581kg": 6608,
  "\u2581msitu": 6609,
  "\u2581paying": 6610,
  "\u2581sources": 6611,
  "\u2581suluhisho": 6612,
  "\u2581talks": 6613,
  "\u2581ukaribu": 6614,
  "\u2581wisely": 6615,
  "Baba": 6616,
  "ated": 6617,
  "ficha": 6618,
  "ven": 6619,
  "\u2581Prayer": 6620,
  "\u2581aliuliza": 6621,
  "\u2581current": 6622,
  "\u2581displayed": 6623,
  "\u2581emotionally": 6624,
  "\u2581kuanguka": 6625,
  "\u2581makundi": 6626,
  "\u2581marked": 6627,
  "\u2581nafaka": 6628,
  "\u2581officer": 6629,
  "\u2581ordered": 6630,
  "\u2581preparing": 6631,
  "\u2581souls": 6632,
  "tufanya": 6633,
  "\u2581Happy": 6634,
  "\u2581Hezekiah": 6635,
  "\u2581Italian": 6636,
  "\u2581adopted": 6637,
  "\u2581alijaribu": 6638,
  "\u2581alijibu": 6639,
  "\u2581aliumba": 6640,
  "\u2581anatoa": 6641,
  "\u2581bacteria": 6642,
  "\u2581east": 6643,
  "\u2581hufa": 6644,
  "\u2581kuimba": 6645,
  "\u2581murefu": 6646,
  "\u2581narrow": 6647,
  "\u2581ngano": 6648,
  "\u2581partner": 6649,
  "\u2581post": 6650,
  "\u2581stronger": 6651,
  "\u2581wabaya": 6652,
  "\u2581watalii": 6653,
  "patia": 6654,
  "umbwa": 6655,
  "\u258110;": 6656,
  "\u2581Cain": 6657,
  "\u2581Hope": 6658,
  "\u2581Indian": 6659,
  "\u2581Lazarus": 6660,
  "\u2581MAISHA": 6661,
  "\u2581Milima": 6662,
  "\u2581alipokufa": 6663,
  "\u2581description": 6664,
  "\u2581except": 6665,
  "\u2581inatoa": 6666,
  "\u2581instructed": 6667,
  "\u2581kungojea": 6668,
  "\u2581mahusiano": 6669,
  "\u2581nuclear": 6670,
  "\u2581ofisa": 6671,
  "\u2581pursuing": 6672,
  "\u2581sites": 6673,
  "\u2581thankful": 6674,
  "\u2581ufanye": 6675,
  "\u2581unayo": 6676,
  "\u2581yatakuwa": 6677,
  "dumisha": 6678,
  "\u2581alicho": 6679,
  "\u2581finds": 6680,
  "\u2581hujaribu": 6681,
  "\u2581huonekana": 6682,
  "\u2581iliyoonyeshwa": 6683,
  "\u2581kanisani": 6684,
  "\u2581kuchapisha": 6685,
  "\u2581kuongozwa": 6686,
  "\u2581losing": 6687,
  "\u2581midst": 6688,
  "\u2581sitting": 6689,
  "\u2581talaka": 6690,
  "\u2581tani": 6691,
  "\u2581ungekuwa": 6692,
  "\u2581witnesses": 6693,
  "achwa": 6694,
  "aji": 6695,
  "waona": 6696,
  "\u2581Barua": 6697,
  "\u2581Dawa": 6698,
  "\u2581Fear": 6699,
  "\u2581Next": 6700,
  "\u2581Tak": 6701,
  "\u2581alini": 6702,
  "\u2581bandari": 6703,
  "\u2581grave": 6704,
  "\u2581ideal": 6705,
  "\u2581industry": 6706,
  "\u2581kita": 6707,
  "\u2581kitulizo": 6708,
  "\u2581legs": 6709,
  "\u2581mukusanyiko": 6710,
  "\u2581mwamba": 6711,
  "\u2581rekodi": 6712,
  "\u2581sets": 6713,
  "\u2581taste": 6714,
  "\u2581teenager": 6715,
  "\u2581theme": 6716,
  "\u2581waliamini": 6717,
  "shikilia": 6718,
  "taendelea": 6719,
  "unge": 6720,
  "\u2581Jamhuri": 6721,
  "\u2581Jumapili": 6722,
  "\u2581Mke": 6723,
  "\u2581Ungepend": 6724,
  "\u2581abandon": 6725,
  "\u2581bunduki": 6726,
  "\u2581central": 6727,
  "\u2581error": 6728,
  "\u2581everywhere": 6729,
  "\u2581extended": 6730,
  "\u2581fourth": 6731,
  "\u2581fuel": 6732,
  "\u2581preserved": 6733,
  "\u2581restore": 6734,
  "\u2581storm": 6735,
  "\u2581visible": 6736,
  "dhani": 6737,
  "\u25811991": 6738,
  "\u2581Ancient": 6739,
  "\u2581Avoid": 6740,
  "\u2581Much": 6741,
  "\u2581admonition": 6742,
  "\u2581akifanya": 6743,
  "\u2581author": 6744,
  "\u2581eggs": 6745,
  "\u2581figurative": 6746,
  "\u2581ghadhabu": 6747,
  "\u2581hit": 6748,
  "\u2581hospitalini": 6749,
  "\u2581kudhuru": 6750,
  "\u2581kuenea": 6751,
  "\u2581muti": 6752,
  "\u2581readers": 6753,
  "\u2581sports": 6754,
  "\u2581streets": 6755,
  "\u2581surrounded": 6756,
  "\u2581terrible": 6757,
  "\u2581ukumbusho": 6758,
  "ally": 6759,
  "shambulia": 6760,
  "\u2581Additionally": 6761,
  "\u2581Halafu": 6762,
  "\u2581Inaweza": 6763,
  "\u2581Scientist": 6764,
  "\u2581Trinity": 6765,
  "\u2581Wanapo": 6766,
  "\u2581Water": 6767,
  "\u2581clergy": 6768,
  "\u2581conversations": 6769,
  "\u2581extend": 6770,
  "\u2581flight": 6771,
  "\u2581gas": 6772,
  "\u2581hauwez": 6773,
  "\u2581inaeleza": 6774,
  "\u2581innocent": 6775,
  "\u2581lowly": 6776,
  "\u2581masikio": 6777,
  "\u2581matakatifu": 6778,
  "\u2581materials": 6779,
  "\u2581solve": 6780,
  "\u2581tired": 6781,
  "\u2581victory": 6782,
  "OR": 6783,
  "elekeza": 6784,
  "jaribiwa": 6785,
  "naoweza": 6786,
  "\u2581Enoch": 6787,
  "\u2581Masomo": 6788,
  "\u2581burden": 6789,
  "\u2581civil": 6790,
  "\u2581commands": 6791,
  "\u2581debt": 6792,
  "\u2581fupi": 6793,
  "\u2581gumu": 6794,
  "\u2581holds": 6795,
  "\u2581huwezi": 6796,
  "\u2581kuoa": 6797,
  "\u2581kutatusaidia": 6798,
  "\u2581maintaining": 6799,
  "\u2581pioneering": 6800,
  "\u2581schools": 6801,
  "\u2581sell": 6802,
  "\u2581shed": 6803,
  "\u2581slowly": 6804,
  "\u2581songs": 6805,
  "\u2581ugomvi": 6806,
  "\u2581wanakuwa": 6807,
  "\u2581wanapokuwa": 6808,
  "rekebisha": 6809,
  "\u2581Abel": 6810,
  "\u2581Child": 6811,
  "\u2581Kaini": 6812,
  "\u2581Vipi": 6813,
  "\u2581begotten": 6814,
  "\u2581belongs": 6815,
  "\u2581coupon": 6816,
  "\u2581hauta": 6817,
  "\u2581injury": 6818,
  "\u2581kuzunguka": 6819,
  "\u2581lovingly": 6820,
  "\u2581michoro": 6821,
  "\u2581mifumo": 6822,
  "\u2581nilitaka": 6823,
  "\u2581online": 6824,
  "\u2581piece": 6825,
  "\u2581preserve": 6826,
  "\u2581relate": 6827,
  "\u2581teeth": 6828,
  "\u2581tunaonyesha": 6829,
  "\u2581turns": 6830,
  "Hakuna": 6831,
  "To": 6832,
  "komaa": 6833,
  "mtumikia": 6834,
  "wapata": 6835,
  "\u2581Majina": 6836,
  "\u2581babu": 6837,
  "\u2581comfortable": 6838,
  "\u2581degrees": 6839,
  "\u2581kadhalika": 6840,
  "\u2581listeners": 6841,
  "\u2581nyuklia": 6842,
  "\u2581temperature": 6843,
  "\u2581tetemeko": 6844,
  "hatarisha": 6845,
  "lihisi": 6846,
  "\u25811994": 6847,
  "\u258154": 6848,
  "\u2581Kuishi": 6849,
  "\u2581Madrid": 6850,
  "\u2581ensure": 6851,
  "\u2581humbly": 6852,
  "\u2581kuathiri": 6853,
  "\u2581kumuua": 6854,
  "\u2581matangazo": 6855,
  "\u2581objects": 6856,
  "\u2581tradition": 6857,
  "\u2581ziara": 6858,
  "IN": 6859,
  "KA": 6860,
  "\u2581Andrew": 6861,
  "\u2581Heart": 6862,
  "\u2581Jamii": 6863,
  "\u2581Kihispania": 6864,
  "\u2581Marafiki": 6865,
  "\u2581Nao": 6866,
  "\u2581Nilipo": 6867,
  "\u2581baraza": 6868,
  "\u2581inakuwa": 6869,
  "\u2581inamaanisha": 6870,
  "\u2581midomo": 6871,
  "\u2581scripture": 6872,
  "\u2581strengthening": 6873,
  "\u2581upweke": 6874,
  "j": 6875,
  "ley": 6876,
  "mwamini": 6877,
  "\u2581Anaye": 6878,
  "\u2581Pasifiki": 6879,
  "\u2581View": 6880,
  "\u2581Welcome": 6881,
  "\u2581alizungumza": 6882,
  "\u2581amekufa": 6883,
  "\u2581associates": 6884,
  "\u2581cared": 6885,
  "\u2581commercial": 6886,
  "\u2581demand": 6887,
  "\u2581enables": 6888,
  "\u2581inherited": 6889,
  "\u2581kupumua": 6890,
  "\u2581kutolewa": 6891,
  "\u2581malezi": 6892,
  "\u2581produces": 6893,
  "\u2581stage": 6894,
  "\u2581tempted": 6895,
  "\u2581throw": 6896,
  "\u2581v": 6897,
  "\u2581wholesome": 6898,
  "\u2581zikiwa": 6899,
  "\u2581Baal": 6900,
  "\u2581Come": 6901,
  "\u2581Making": 6902,
  "\u2581Muhimu": 6903,
  "\u2581akitumia": 6904,
  "\u2581exchange": 6905,
  "\u2581highest": 6906,
  "\u2581illustrations": 6907,
  "\u2581kuko": 6908,
  "\u2581maombi": 6909,
  "\u2581mikononi": 6910,
  "\u2581niko": 6911,
  "\u2581symbol": 6912,
  "kumbuke": 6913,
  "\u258108": 6914,
  "\u2581Nigeria": 6915,
  "\u2581Scientists": 6916,
  "\u2581Siberia": 6917,
  "\u2581cruel": 6918,
  "\u2581endured": 6919,
  "\u2581fahari": 6920,
  "\u2581forgiving": 6921,
  "\u2581guided": 6922,
  "\u2581ladha": 6923,
  "\u2581station": 6924,
  "\u2581tear": 6925,
  "haribika": 6926,
  "\u2581Mamilioni": 6927,
  "\u2581azimio": 6928,
  "\u2581corrupt": 6929,
  "\u2581depth": 6930,
  "\u2581kadi": 6931,
  "\u2581mapato": 6932,
  "\u2581mashambulizi": 6933,
  "\u2581messages": 6934,
  "\u2581profound": 6935,
  "\u2581tumbaku": 6936,
  "\u2581tunayo": 6937,
  "\u2581unless": 6938,
  "jisikia": 6939,
  "kamata": 6940,
  "not": 6941,
  "oni": 6942,
  "\u2581Australian": 6943,
  "\u2581Malaki": 6944,
  "\u2581acquire": 6945,
  "\u2581adjust": 6946,
  "\u2581alivyosema": 6947,
  "\u2581biro": 6948,
  "\u2581conviction": 6949,
  "\u2581discover": 6950,
  "\u2581haina": 6951,
  "\u2581kulinganishwa": 6952,
  "\u2581kutupa": 6953,
  "\u2581lilipo": 6954,
  "\u2581maradhi": 6955,
  "\u2581mashahidi": 6956,
  "\u2581mdomo": 6957,
  "\u2581object": 6958,
  "\u2581reads": 6959,
  "\u2581sky": 6960,
  "\u2581tropical": 6961,
  "\u2581wenzako": 6962,
  "\u2581worker": 6963,
  "elezea": 6964,
  "res": 6965,
  "shambuliwa": 6966,
  "\u2581Encyclop\u00e6dia": 6967,
  "\u2581Kabisa": 6968,
  "\u2581Peru": 6969,
  "\u2581Ru": 6970,
  "\u2581Uwezo": 6971,
  "\u2581accord": 6972,
  "\u2581blame": 6973,
  "\u2581ends": 6974,
  "\u2581iliyotangulia": 6975,
  "\u2581kumwogopa": 6976,
  "\u2581kuwapenda": 6977,
  "\u2581mistake": 6978,
  "\u2581ufupi": 6979,
  "\u2581unafanya": 6980,
  "\u2581virtual": 6981,
  "\u2581walikataa": 6982,
  "No": 6983,
  "chukia": 6984,
  "keep": 6985,
  "\u2581Yonathani": 6986,
  "\u2581acknowledged": 6987,
  "\u2581annual": 6988,
  "\u2581cast": 6989,
  "\u2581deliverance": 6990,
  "\u2581giant": 6991,
  "\u2581hodari": 6992,
  "\u2581likiwa": 6993,
  "\u2581misaada": 6994,
  "\u2581nadharia": 6995,
  "\u2581peer": 6996,
  "\u2581permission": 6997,
  "\u2581pleasing": 6998,
  "\u2581possession": 6999,
  "\u2581previously": 7000,
  "\u2581rescue": 7001,
  "\u2581serpent": 7002,
  "LA": 7003,
  "fafanua": 7004,
  "\u2581Acha": 7005,
  "\u2581Bi": 7006,
  "\u2581Dad": 7007,
  "\u2581Esta": 7008,
  "\u2581Ex": 7009,
  "\u2581Grand": 7010,
  "\u2581Kikundi": 7011,
  "\u2581Kiroho": 7012,
  "\u2581Korintho": 7013,
  "\u2581Malachi": 7014,
  "\u2581Wamisri": 7015,
  "\u2581choosing": 7016,
  "\u2581heads": 7017,
  "\u2581impression": 7018,
  "\u2581mashini": 7019,
  "\u2581mazungumuzo": 7020,
  "\u2581patiently": 7021,
  "\u2581sufficient": 7022,
  "dhuru": 7023,
  "kunywa": 7024,
  "\u2581Chembe": 7025,
  "\u2581Frank": 7026,
  "\u2581Men": 7027,
  "\u2581Sinai": 7028,
  "\u2581asali": 7029,
  "\u2581bright": 7030,
  "\u2581chronic": 7031,
  "\u2581existed": 7032,
  "\u2581fleshly": 7033,
  "\u2581kujitayarisha": 7034,
  "\u2581kutimizwa": 7035,
  "\u2581mashaka": 7036,
  "\u2581ministeri": 7037,
  "\u2581tulivyo": 7038,
  "\u2581watiifu": 7039,
  "\u2581welfare": 7040,
  "kusaidia": 7041,
  "tosha": 7042,
  "\u25811943": 7043,
  "\u2581Ao": 7044,
  "\u2581Finland": 7045,
  "\u2581comment": 7046,
  "\u2581covering": 7047,
  "\u2581ear": 7048,
  "\u2581fishing": 7049,
  "\u2581grand": 7050,
  "\u2581imperfection": 7051,
  "\u2581initiative": 7052,
  "\u2581linked": 7053,
  "\u2581liwe": 7054,
  "\u2581mile": 7055,
  "\u2581schedule": 7056,
  "\u2581sorts": 7057,
  "\u2581spite": 7058,
  "\u2581structure": 7059,
  "\u2581supplies": 7060,
  "\u2581viziwi": 7061,
  "\u2581wajifunze": 7062,
  "\u2581watano": 7063,
  "Tuna": 7064,
  "tayarishwa": 7065,
  "tisha": 7066,
  "\u258106": 7067,
  "\u25811992": 7068,
  "\u2581Baali": 7069,
  "\u2581Jean": 7070,
  "\u2581Modern": 7071,
  "\u2581Near": 7072,
  "\u2581Pilato": 7073,
  "\u2581approved": 7074,
  "\u2581campaign": 7075,
  "\u2581camps": 7076,
  "\u2581examination": 7077,
  "\u2581finish": 7078,
  "\u2581husaidia": 7079,
  "\u2581isi": 7080,
  "\u2581motives": 7081,
  "\u2581nilifanya": 7082,
  "\u2581shimo": 7083,
  "\u2581suitable": 7084,
  "\u2581weaknesses": 7085,
  "MA": 7086,
  "\u2581Galilaya": 7087,
  "\u2581Ime": 7088,
  "\u2581Rose": 7089,
  "\u2581Things": 7090,
  "\u2581accepting": 7091,
  "\u2581alianzisha": 7092,
  "\u2581awa": 7093,
  "\u2581badiliko": 7094,
  "\u2581kifupi": 7095,
  "\u2581kijani": 7096,
  "\u2581park": 7097,
  "\u2581shida": 7098,
  "\u2581sinners": 7099,
  "\u2581theory": 7100,
  "\u2581utii": 7101,
  "\u2581widespread": 7102,
  "navyoweza": 7103,
  "nukuliwa": 7104,
  "ripoti": 7105,
  "und": 7106,
  "\u2581Heights": 7107,
  "\u2581Louis": 7108,
  "\u2581Solomoni": 7109,
  "\u2581foods": 7110,
  "\u2581generous": 7111,
  "\u2581haija": 7112,
  "\u2581hawapaswi": 7113,
  "\u2581mawingu": 7114,
  "\u2581merciful": 7115,
  "\u2581pande": 7116,
  "\u2581udumuo": 7117,
  "\u2581utambuzi": 7118,
  "\u2581wakimbizi": 7119,
  "\u2581waste": 7120,
  "201": 7121,
  "dy": 7122,
  "ham": 7123,
  "kaza": 7124,
  "\u258100": 7125,
  "\u258117;": 7126,
  "\u258127]": 7127,
  "\u2581Babylonian": 7128,
  "\u2581Dead": 7129,
  "\u2581Far": 7130,
  "\u2581HAVE": 7131,
  "\u2581akuwe": 7132,
  "\u2581calamity": 7133,
  "\u2581dying": 7134,
  "\u2581equipped": 7135,
  "\u2581haziku": 7136,
  "\u2581haziwezi": 7137,
  "\u2581majivuno": 7138,
  "\u2581ngome": 7139,
  "\u2581parable": 7140,
  "\u2581pembeni": 7141,
  "\u2581surrounding": 7142,
  "\u2581usafiri": 7143,
  "\u2581yaliyoandikwa": 7144,
  "andamana": 7145,
  "anze": 7146,
  "hama": 7147,
  "pendekeza": 7148,
  "semwa": 7149,
  "\u258107": 7150,
  "\u258152": 7151,
  "\u2581Back": 7152,
  "\u2581Drama": 7153,
  "\u2581Japanese": 7154,
  "\u2581Medical": 7155,
  "\u2581Mkubwa": 7156,
  "\u2581Tunajua": 7157,
  "\u2581accompanied": 7158,
  "\u2581achieve": 7159,
  "\u2581faces": 7160,
  "\u2581favorite": 7161,
  "\u2581miracle": 7162,
  "\u2581mtindo": 7163,
  "\u2581ninapo": 7164,
  "\u2581repeated": 7165,
  "\u2581repentant": 7166,
  "\u2581returning": 7167,
  "\u2581roads": 7168,
  "\u2581roof": 7169,
  "\u2581totally": 7170,
  "\u2581ukawa": 7171,
  "hukumu": 7172,
  "ists": 7173,
  "ongea": 7174,
  "vaa": 7175,
  "\u2581Ephesus": 7176,
  "\u2581Mahakama": 7177,
  "\u2581Ndivyo": 7178,
  "\u2581arrival": 7179,
  "\u2581base": 7180,
  "\u2581begun": 7181,
  "\u2581equal": 7182,
  "\u2581ethnic": 7183,
  "\u2581fathers": 7184,
  "\u2581milki": 7185,
  "\u2581muujiza": 7186,
  "\u2581professional": 7187,
  "\u2581reminders": 7188,
  "\u2581remote": 7189,
  "\u2581star": 7190,
  "teseka": 7191,
  "zu": 7192,
  "\u258130]": 7193,
  "\u2581Con": 7194,
  "\u2581Hapo": 7195,
  "\u2581Papa": 7196,
  "\u2581Usiku": 7197,
  "\u2581Yangu": 7198,
  "\u2581ages": 7199,
  "\u2581akiba": 7200,
  "\u2581chemical": 7201,
  "\u2581clay": 7202,
  "\u2581inaendelea": 7203,
  "\u2581operation": 7204,
  "\u2581records": 7205,
  "\u2581refreshing": 7206,
  "\u2581ruled": 7207,
  "\u2581sentimeta": 7208,
  "\u2581uhodari": 7209,
  "\u2581wheat": 7210,
  "ane": 7211,
  "sis": 7212,
  "\u2581Cha": 7213,
  "\u2581Mukubwa": 7214,
  "\u2581Passover": 7215,
  "\u2581afternoon": 7216,
  "\u2581attractive": 7217,
  "\u2581bones": 7218,
  "\u2581deni": 7219,
  "\u2581fears": 7220,
  "\u2581feeding": 7221,
  "\u2581headquarters": 7222,
  "\u2581hutegemea": 7223,
  "\u2581inches": 7224,
  "\u2581kaburi": 7225,
  "\u2581kuifanya": 7226,
  "\u2581matumaini": 7227,
  "\u2581mboga": 7228,
  "\u2581mkiwa": 7229,
  "\u2581opposers": 7230,
  "\u2581ratiba": 7231,
  "\u2581route": 7232,
  "\u2581sheba": 7233,
  "\u2581tendency": 7234,
  "\u2581torture": 7235,
  "lisha": 7236,
  "\u258142.": 7237,
  "\u258173": 7238,
  "\u2581Myahudi": 7239,
  "\u2581Spiritual": 7240,
  "\u2581Unakumbuka": 7241,
  "\u2581WHO": 7242,
  "\u2581anaandika": 7243,
  "\u2581bandia": 7244,
  "\u2581era": 7245,
  "\u2581filling": 7246,
  "\u2581friendly": 7247,
  "\u2581friendships": 7248,
  "\u2581grows": 7249,
  "\u2581halali": 7250,
  "\u2581huja": 7251,
  "\u2581kujisikia": 7252,
  "\u2581mapambo": 7253,
  "\u2581mwangalifu": 7254,
  "\u2581perfection": 7255,
  "\u2581rewarding": 7256,
  "\u2581tunaendelea": 7257,
  "\u2581tunao": 7258,
  "\u2581umewahi": 7259,
  "dhaniwa": 7260,
  "rithi": 7261,
  "ungana": 7262,
  "\u258132]": 7263,
  "\u2581Mar": 7264,
  "\u2581aliomba": 7265,
  "\u2581fallen": 7266,
  "\u2581huleta": 7267,
  "\u2581humaanisha": 7268,
  "\u2581hutokea": 7269,
  "\u2581inapatikana": 7270,
  "\u2581increasingly": 7271,
  "\u2581jobs": 7272,
  "\u2581jumla": 7273,
  "\u2581kuharibika": 7274,
  "\u2581kukesha": 7275,
  "\u2581lengo": 7276,
  "\u2581malaria": 7277,
  "\u2581muovu": 7278,
  "\u2581paragraph": 7279,
  "\u2581wanakabili": 7280,
  "car": 7281,
  "ill": 7282,
  "kasirika": 7283,
  "katwa": 7284,
  "miliki": 7285,
  "op": 7286,
  "pitia": 7287,
  "qui": 7288,
  "sitawisha": 7289,
  "tangazwa": 7290,
  "umia": 7291,
  "\u2581Association": 7292,
  "\u2581En": 7293,
  "\u2581JEHOVAH": 7294,
  "\u2581Kubwa": 7295,
  "\u2581catch": 7296,
  "\u2581colors": 7297,
  "\u2581conflicts": 7298,
  "\u2581desert": 7299,
  "\u2581game": 7300,
  "\u2581hatuna": 7301,
  "\u2581hayawezi": 7302,
  "\u2581huathiri": 7303,
  "\u2581hutaka": 7304,
  "\u2581kutokuwa": 7305,
  "\u2581measures": 7306,
  "\u2581miraculous": 7307,
  "\u2581outlook": 7308,
  "\u2581profesa": 7309,
  "\u2581shortly": 7310,
  "\u2581stands": 7311,
  "\u2581unaoitwa": 7312,
  "badilisha": 7313,
  "day": 7314,
  "nipa": 7315,
  "okoa": 7316,
  "ros": 7317,
  "simamisha": 7318,
  "\u00e3o": 7319,
  "\u25816;": 7320,
  "\u2581Wata": 7321,
  "\u2581anaishi": 7322,
  "\u2581bitter": 7323,
  "\u2581discernment": 7324,
  "\u2581encounter": 7325,
  "\u2581footnote": 7326,
  "\u2581kihalisi": 7327,
  "\u2581maofisa": 7328,
  "\u2581tools": 7329,
  "\u2581wamekufa": 7330,
  "ahidi": 7331,
  "funikwa": 7332,
  "jikuta": 7333,
  "uma": 7334,
  "\u2581Amos": 7335,
  "\u2581Gharika": 7336,
  "\u2581Inaelekea": 7337,
  "\u2581Mapema": 7338,
  "\u2581Mchoro": 7339,
  "\u2581Mwa": 7340,
  "\u2581Ndipo": 7341,
  "\u2581Simon": 7342,
  "\u2581bonde": 7343,
  "\u2581context": 7344,
  "\u2581devoted": 7345,
  "\u2581foolish": 7346,
  "\u2581halikuwa": 7347,
  "\u2581kuogopesha": 7348,
  "\u2581lips": 7349,
  "\u2581printing": 7350,
  "\u2581recreation": 7351,
  "\u2581searching": 7352,
  "\u2581siwezi": 7353,
  "\u2581tunge": 7354,
  "\u2581uchafu": 7355,
  "imba": 7356,
  "ojawapo": 7357,
  "pendelea": 7358,
  "poteze": 7359,
  "teka": 7360,
  "\u2581(4)": 7361,
  "\u2581Mahubiri": 7362,
  "\u2581Mediterania": 7363,
  "\u2581Mediterranean": 7364,
  "\u2581Ninaweza": 7365,
  "\u2581Women": 7366,
  "\u2581Years": 7367,
  "\u2581cure": 7368,
  "\u2581execution": 7369,
  "\u2581globe": 7370,
  "\u2581kuonwa": 7371,
  "\u2581mashtaka": 7372,
  "\u2581nyuki": 7373,
  "\u2581peers": 7374,
  "\u2581reply": 7375,
  "\u2581safeguard": 7376,
  "\u2581smaller": 7377,
  "\u2581spring": 7378,
  "\u2581title": 7379,
  "\u2581ubora": 7380,
  "\u2581uhakikisho": 7381,
  "\u2581unclean": 7382,
  "\u2581walionyesha": 7383,
  "\u2581watakao": 7384,
  "\u2581whereas": 7385,
  "ini": 7386,
  "\u25811914.": 7387,
  "\u2581Jipya": 7388,
  "\u2581Jordan": 7389,
  "\u2581Macho": 7390,
  "\u2581Mountain": 7391,
  "\u2581Ukiwa": 7392,
  "\u2581anapendezwa": 7393,
  "\u2581condemned": 7394,
  "\u2581delighted": 7395,
  "\u2581educational": 7396,
  "\u2581expensive": 7397,
  "\u2581injili": 7398,
  "\u2581kulipia": 7399,
  "\u2581linalomaanisha": 7400,
  "\u2581matetemeko": 7401,
  "\u2581periods": 7402,
  "\u2581rare": 7403,
  "\u2581reduced": 7404,
  "\u2581singing": 7405,
  "\u2581treasures": 7406,
  "\u2581ufanisi": 7407,
  "\u2581wanafurahia": 7408,
  "endeleza": 7409,
  "mambo": 7410,
  "sho": 7411,
  "tes": 7412,
  "\u2581Alexander": 7413,
  "\u2581Kichwa": 7414,
  "\u2581[1": 7415,
  "\u2581abiria": 7416,
  "\u2581dharura": 7417,
  "\u2581guilty": 7418,
  "\u2581kutibu": 7419,
  "\u2581kutisha": 7420,
  "\u2581magurudumu": 7421,
  "\u2581necessarily": 7422,
  "\u2581sacrificing": 7423,
  "\u2581sigareti": 7424,
  "\u2581umajimaji": 7425,
  "Why": 7426,
  "\u2581Kiongozi": 7427,
  "\u2581Middle": 7428,
  "\u2581Millions": 7429,
  "\u2581Park": 7430,
  "\u2581Rutherford": 7431,
  "\u2581Wenzi": 7432,
  "\u2581Zina": 7433,
  "\u2581damaged": 7434,
  "\u2581fat": 7435,
  "\u2581height": 7436,
  "\u2581ilionyesha": 7437,
  "\u2581kisicho": 7438,
  "\u2581kuruka": 7439,
  "\u2581linapo": 7440,
  "\u2581mnara": 7441,
  "\u2581prejudice": 7442,
  "\u2581repentance": 7443,
  "\u2581respected": 7444,
  "\u2581viatu": 7445,
  "\u2581zinazofaa": 7446,
  "chaguliwa": 7447,
  "fariji": 7448,
  "nd": 7449,
  "ombwa": 7450,
  "\u2581board": 7451,
  "\u2581kupima": 7452,
  "\u2581kutubu": 7453,
  "\u2581meek": 7454,
  "\u2581morally": 7455,
  "\u2581pale": 7456,
  "\u2581regret": 7457,
  "\u2581safu": 7458,
  "\u2581tunayoweza": 7459,
  "\u2581ungodly": 7460,
  "\u2581vikubwa": 7461,
  "\u2581vishawishi": 7462,
  "\u2581ziwa": 7463,
  "\u2581\u2192": 7464,
  "batizwa": 7465,
  "mtegemea": 7466,
  "mufanya": 7467,
  "timizwa": 7468,
  "waruhusu": 7469,
  "\u258145.": 7470,
  "\u258161": 7471,
  "\u2581Amosi": 7472,
  "\u2581Congregation": 7473,
  "\u2581End": 7474,
  "\u2581Find": 7475,
  "\u2581Kichapo": 7476,
  "\u2581Pasaka": 7477,
  "\u2581Pilate": 7478,
  "\u2581Rev": 7479,
  "\u2581Scotland": 7480,
  "\u2581Way": 7481,
  "\u2581attain": 7482,
  "\u2581deaths": 7483,
  "\u2581doctrine": 7484,
  "\u2581fascinating": 7485,
  "\u2581hayakuwa": 7486,
  "\u2581kupigwa": 7487,
  "\u2581limits": 7488,
  "\u2581mabomu": 7489,
  "\u2581marefu": 7490,
  "\u2581mgumu": 7491,
  "\u2581ncha": 7492,
  "\u2581photos": 7493,
  "\u2581sensitive": 7494,
  "\u2581sentence": 7495,
  "\u2581silent": 7496,
  "\u2581sugar": 7497,
  "\u2581umekuwa": 7498,
  "\u2581vijiji": 7499,
  "\u2581vyepesi": 7500,
  "\u2581warfare": 7501,
  "\u2581zito": 7502,
  "Hata": 7503,
  "Kama": 7504,
  "ier": 7505,
  "iezi": 7506,
  "jali": 7507,
  "mruhusu": 7508,
  "ondolea": 7509,
  "ow": 7510,
  "rudisha": 7511,
  "wakati": 7512,
  "\u2581000": 7513,
  "\u2581Chi": 7514,
  "\u2581Hawaii": 7515,
  "\u2581Taifa": 7516,
  "\u2581Uhusiano": 7517,
  "\u2581admit": 7518,
  "\u2581aitwa": 7519,
  "\u2581empire": 7520,
  "\u2581executed": 7521,
  "\u2581flying": 7522,
  "\u2581genetic": 7523,
  "\u2581greed": 7524,
  "\u2581guilt": 7525,
  "\u2581hum": 7526,
  "\u2581meditation": 7527,
  "\u2581mourning": 7528,
  "\u2581poured": 7529,
  "\u2581seeming": 7530,
  "\u2581staff": 7531,
  "\u2581uliopo": 7532,
  "\u2581waandikaji": 7533,
  "Kuna": 7534,
  "kataza": 7535,
  "mekwisha": 7536,
  "natambua": 7537,
  "per": 7538,
  "wahimiza": 7539,
  "\u25811939": 7540,
  "\u2581Answers": 7541,
  "\u2581Corinth": 7542,
  "\u2581Galilee": 7543,
  "\u2581Joel": 7544,
  "\u2581Master": 7545,
  "\u2581Ocean": 7546,
  "\u2581WHEN": 7547,
  "\u2581Yaonekana": 7548,
  "\u2581aliamini": 7549,
  "\u2581eagerly": 7550,
  "\u2581exciting": 7551,
  "\u2581kushikamana": 7552,
  "\u2581lini": 7553,
  "\u2581maduka": 7554,
  "\u2581redio": 7555,
  "\u2581sat": 7556,
  "\u2581senses": 7557,
  "\u2581tested": 7558,
  "\u2581unafiki": 7559,
  "\u2581wasomaji": 7560,
  "ju": 7561,
  "kuza": 7562,
  "mer": 7563,
  "tegemeza": 7564,
  "tolea": 7565,
  "tunza": 7566,
  "ud": 7567,
  "\u2581Committee": 7568,
  "\u2581Tito": 7569,
  "\u2581akizungumza": 7570,
  "\u2581aliniambia": 7571,
  "\u2581arrive": 7572,
  "\u2581defend": 7573,
  "\u2581fruits": 7574,
  "\u2581kujidhabihu": 7575,
  "\u2581naam": 7576,
  "\u2581oksijeni": 7577,
  "\u2581passage": 7578,
  "\u2581upbuilding": 7579,
  "\u2581\u2193": 7580,
  "gharimu": 7581,
  "olewa": 7582,
  "rudia": 7583,
  "tra": 7584,
  "tufundisha": 7585,
  "\u2581145": 7586,
  "\u2581700": 7587,
  "\u2581Mdo": 7588,
  "\u2581Toronto": 7589,
  "\u2581Ujumbe": 7590,
  "\u2581appealing": 7591,
  "\u2581detail": 7592,
  "\u2581equipment": 7593,
  "\u2581flee": 7594,
  "\u2581kulea": 7595,
  "\u2581kutuliza": 7596,
  "\u2581linavyo": 7597,
  "\u2581mchanganyiko": 7598,
  "\u2581remembered": 7599,
  "\u2581tent": 7600,
  "\u2581tulipo": 7601,
  "ard": 7602,
  "mtolea": 7603,
  "simamia": 7604,
  "\u00ed": 7605,
  "\u2581Albert": 7606,
  "\u2581Anaweza": 7607,
  "\u2581Col": 7608,
  "\u2581Habakuki": 7609,
  "\u2581Jos\u00e9": 7610,
  "\u2581Put": 7611,
  "\u2581Utumishi": 7612,
  "\u2581Yanayo": 7613,
  "\u2581Zealand": 7614,
  "\u2581character": 7615,
  "\u2581crisis": 7616,
  "\u2581crops": 7617,
  "\u2581deeper": 7618,
  "\u2581hell": 7619,
  "\u2581hoped": 7620,
  "\u2581imepita": 7621,
  "\u2581kuhama": 7622,
  "\u2581kukasirika": 7623,
  "\u2581map": 7624,
  "\u2581meza": 7625,
  "\u2581miss": 7626,
  "\u2581nafuu": 7627,
  "\u2581reap": 7628,
  "\u2581regardless": 7629,
  "\u2581significance": 7630,
  "\u2581sounds": 7631,
  "\u2581universal": 7632,
  "\u2581upana": 7633,
  "\u2581walipewa": 7634,
  "\u2581yamekuwa": 7635,
  "lan": 7636,
  "\u2581(1": 7637,
  "\u258162": 7638,
  "\u2581Bath": 7639,
  "\u2581Habakkuk": 7640,
  "\u2581Happiness": 7641,
  "\u2581Herod": 7642,
  "\u2581Trust": 7643,
  "\u2581Uholanzi": 7644,
  "\u2581beast": 7645,
  "\u2581cloud": 7646,
  "\u2581dollars": 7647,
  "\u2581kutanguliza": 7648,
  "\u2581mates": 7649,
  "\u2581matoleo": 7650,
  "\u2581mgeni": 7651,
  "\u2581reli": 7652,
  "\u2581satisfy": 7653,
  "\u2581sides": 7654,
  "\u2581soft": 7655,
  "\u2581vessels": 7656,
  "\u2581wakisema": 7657,
  "\u2581yaliyotukia": 7658,
  "ZA": 7659,
  "ey": 7660,
  "kila": 7661,
  "nayoonyesha": 7662,
  "paaza": 7663,
  "that": 7664,
  "tuwezesha": 7665,
  "\u25811941": 7666,
  "\u2581Abeli": 7667,
  "\u2581Alifanya": 7668,
  "\u2581Department": 7669,
  "\u2581Learning": 7670,
  "\u2581Right": 7671,
  "\u2581Titus": 7672,
  "\u2581alihisi": 7673,
  "\u2581cup": 7674,
  "\u2581elsewhere": 7675,
  "\u2581kukubaliwa": 7676,
  "\u2581kunisaidia": 7677,
  "\u2581kuunganisha": 7678,
  "\u2581oldest": 7679,
  "\u2581protini": 7680,
  "\u2581unapenda": 7681,
  "\u2581wanaopenda": 7682,
  "\u2581wangali": 7683,
  "ern": 7684,
  "inua": 7685,
  "\u258114]": 7686,
  "\u2581Galileo": 7687,
  "\u2581Published": 7688,
  "\u2581Sun": 7689,
  "\u2581applies": 7690,
  "\u2581border": 7691,
  "\u2581characters": 7692,
  "\u2581compassionate": 7693,
  "\u2581du": 7694,
  "\u2581flood": 7695,
  "\u2581kihistoria": 7696,
  "\u2581kukamata": 7697,
  "\u2581makaburi": 7698,
  "\u2581practiced": 7699,
  "\u2581president": 7700,
  "\u2581previous": 7701,
  "\u2581rapidly": 7702,
  "\u2581resolved": 7703,
  "\u2581tobacco": 7704,
  "\u2581uchumi": 7705,
  "\u2581wanajeshi": 7706,
  "fuatwa": 7707,
  "ron": 7708,
  "tulia": 7709,
  "uzwa": 7710,
  "\u2581250": 7711,
  "\u2581Hatu": 7712,
  "\u2581Interestingly": 7713,
  "\u2581Meanwhile": 7714,
  "\u2581Po": 7715,
  "\u2581athari": 7716,
  "\u2581cultures": 7717,
  "\u2581fed": 7718,
  "\u2581hauna": 7719,
  "\u2581inayokaliwa": 7720,
  "\u2581itakayo": 7721,
  "\u2581jarida": 7722,
  "\u2581kahawa": 7723,
  "\u2581shaped": 7724,
  "\u2581smile": 7725,
  "\u2581tangazo": 7726,
  "\u2581thrown": 7727,
  "\u2581zisizostahiliwa": 7728,
  "eleweka": 7729,
  "fafanuliwa": 7730,
  "his": 7731,
  "onya": 7732,
  "\u2581Leviticus": 7733,
  "\u2581Mafundisho": 7734,
  "\u2581Yosia": 7735,
  "\u2581cultural": 7736,
  "\u2581dies": 7737,
  "\u2581expectations": 7738,
  "\u2581hatarini": 7739,
  "\u2581ilionekana": 7740,
  "\u2581iwezekanavyo": 7741,
  "\u2581madokezo": 7742,
  "\u2581marital": 7743,
  "\u2581olive": 7744,
  "\u2581opposed": 7745,
  "\u2581piano": 7746,
  "\u2581prefer": 7747,
  "\u2581seventh": 7748,
  "\u2581tragedy": 7749,
  "\u2581tunajifunza": 7750,
  "\u2581unaye": 7751,
  "\u2581wanafikiri": 7752,
  "70": 7753,
  "TE": 7754,
  "ende": 7755,
  "kabiliana": 7756,
  "my": 7757,
  "nde": 7758,
  "\u2581Jan": 7759,
  "\u2581Mwanafunzi": 7760,
  "\u2581Star": 7761,
  "\u2581Susan": 7762,
  "\u2581Tom": 7763,
  "\u2581X": 7764,
  "\u2581Year": 7765,
  "\u2581anaitwa": 7766,
  "\u2581approaching": 7767,
  "\u2581bi": 7768,
  "\u2581cattle": 7769,
  "\u2581exact": 7770,
  "\u2581facilities": 7771,
  "\u2581glorify": 7772,
  "\u2581hema": 7773,
  "\u2581hospitality": 7774,
  "\u2581kueleweka": 7775,
  "\u2581kufungwa": 7776,
  "\u2581kutamani": 7777,
  "\u2581objective": 7778,
  "\u2581outset": 7779,
  "\u2581oxygen": 7780,
  "\u2581risks": 7781,
  "\u2581urges": 7782,
  ",000,000": 7783,
  "ES": 7784,
  "Yeye": 7785,
  "dhihirisha": 7786,
  "kama": 7787,
  "musaidia": 7788,
  "tuletea": 7789,
  "zingatia": 7790,
  "\u2581Elimu": 7791,
  "\u2581Hati": 7792,
  "\u2581Herode": 7793,
  "\u2581Hotuba": 7794,
  "\u2581Kanaani": 7795,
  "\u2581Tunajifunza": 7796,
  "\u2581Washiriki": 7797,
  "\u2581angali": 7798,
  "\u2581driver": 7799,
  "\u2581falsafa": 7800,
  "\u2581hide": 7801,
  "\u2581inje": 7802,
  "\u2581kinachoitwa": 7803,
  "\u2581kutoweka": 7804,
  "\u2581linalofaa": 7805,
  "\u2581minute": 7806,
  "\u2581mugawo": 7807,
  "\u2581murder": 7808,
  "\u2581possibility": 7809,
  "\u2581reside": 7810,
  "\u2581roots": 7811,
  "\u2581temper": 7812,
  "\u2581towns": 7813,
  "\u2581tunasoma": 7814,
  "\u2581wanayo": 7815,
  "\u2581wealthy": 7816,
  "choka": 7817,
  "huzunika": 7818,
  "jitenga": 7819,
  "lilazimika": 7820,
  "mpendeza": 7821,
  "mtaja": 7822,
  "nu": 7823,
  "tendewa": 7824,
  "waonyesha": 7825,
  "\u2581Ho": 7826,
  "\u2581Kim": 7827,
  "\u2581Su": 7828,
  "\u2581Visiwa": 7829,
  "\u2581assume": 7830,
  "\u2581discussions": 7831,
  "\u2581edition": 7832,
  "\u2581fitting": 7833,
  "\u2581fly": 7834,
  "\u2581heal": 7835,
  "\u2581hifadhi": 7836,
  "\u2581immune": 7837,
  "\u2581kilimo": 7838,
  "\u2581kunge": 7839,
  "\u2581likened": 7840,
  "\u2581observing": 7841,
  "\u2581t": 7842,
  "\u2581talked": 7843,
  "\u2581winds": 7844,
  "kumba": 7845,
  "litamani": 7846,
  "mtii": 7847,
  "ten": 7848,
  "up": 7849,
  "\u2581130": 7850,
  "\u2581DO": 7851,
  "\u2581Josiah": 7852,
  "\u2581Za": 7853,
  "\u2581agreement": 7854,
  "\u2581desired": 7855,
  "\u2581extensive": 7856,
  "\u2581extraordinary": 7857,
  "\u2581horses": 7858,
  "\u2581mainly": 7859,
  "\u2581mtego": 7860,
  "\u2581nisi": 7861,
  "\u2581plenty": 7862,
  "\u2581status": 7863,
  "\u2581unaendelea": 7864,
  "\u2581utakapo": 7865,
  "\u2581yanavyo": 7866,
  "ent": 7867,
  "funuliwa": 7868,
  "kana": 7869,
  "shughulika": 7870,
  "\u25811918": 7871,
  "\u258133,": 7872,
  "\u2581Evidently": 7873,
  "\u2581Jaribu": 7874,
  "\u2581Kiasi": 7875,
  "\u2581Mbinu": 7876,
  "\u2581Page": 7877,
  "\u2581Tamaa": 7878,
  "\u2581Waamuzi": 7879,
  "\u2581alivyokuwa": 7880,
  "\u2581bought": 7881,
  "\u2581inherit": 7882,
  "\u2581initial": 7883,
  "\u2581ka": 7884,
  "\u2581mikusanyiko": 7885,
  "\u2581replace": 7886,
  "\u2581settled": 7887,
  "\u2581tulipokuwa": 7888,
  "\u2581utapata": 7889,
  "\u2581wafanyabiashara": 7890,
  "\u2581walitoa": 7891,
  "\u2581zinavyo": 7892,
  "Vijana": 7893,
  "fuatia": 7894,
  "jo": 7895,
  "kwenda": 7896,
  "ongezea": 7897,
  "\u2581Globe": 7898,
  "\u2581Iliyo": 7899,
  "\u2581Kutembelewa": 7900,
  "\u2581considerable": 7901,
  "\u2581drama": 7902,
  "\u2581engaged": 7903,
  "\u2581hungry": 7904,
  "\u2581jema": 7905,
  "\u2581kidunia": 7906,
  "\u2581kumekuwa": 7907,
  "\u2581kusonga": 7908,
  "\u2581maonyo": 7909,
  "\u2581sarafu": 7910,
  "\u2581vitani": 7911,
  "\u2581wooden": 7912,
  "EL": 7913,
  "iba": 7914,
  "zuka": 7915,
  "\u2581Again": 7916,
  "\u2581Bibi": 7917,
  "\u2581NINI": 7918,
  "\u2581Post": 7919,
  "\u2581Victoria": 7920,
  "\u2581addressed": 7921,
  "\u2581adopt": 7922,
  "\u2581alimaanisha": 7923,
  "\u2581bears": 7924,
  "\u2581bow": 7925,
  "\u2581collection": 7926,
  "\u2581dog": 7927,
  "\u2581duka": 7928,
  "\u2581homa": 7929,
  "\u2581kuchezea": 7930,
  "\u2581kukuza": 7931,
  "\u2581kustahili": 7932,
  "\u2581kutuma": 7933,
  "\u2581kuzingatia": 7934,
  "\u2581load": 7935,
  "\u2581mkusanyiko": 7936,
  "\u2581msaidizi": 7937,
  "\u2581msituni": 7938,
  "\u2581originally": 7939,
  "\u2581prey": 7940,
  "\u2581uchawi": 7941,
  "\u2581unaoweza": 7942,
  "ov": 7943,
  "\u2581Judea": 7944,
  "\u2581Msichana": 7945,
  "\u2581Rachel": 7946,
  "\u2581WAS": 7947,
  "\u2581accused": 7948,
  "\u2581flow": 7949,
  "\u2581hunger": 7950,
  "\u2581kufariji": 7951,
  "\u2581kutendewa": 7952,
  "\u2581kutofautisha": 7953,
  "\u2581rewarded": 7954,
  "\u2581teenagers": 7955,
  "\u2581teens": 7956,
  "\u2581trusting": 7957,
  "\u2581upumbavu": 7958,
  "\u2581urge": 7959,
  "\u2581wings": 7960,
  "andaa": 7961,
  "ndo": 7962,
  "ology": 7963,
  "ugua": 7964,
  "\u2581104": 7965,
  "\u25812483": 7966,
  "\u2581Reading": 7967,
  "\u2581Ten": 7968,
  "\u2581Tunapata": 7969,
  "\u2581billions": 7970,
  "\u2581chako": 7971,
  "\u2581dume": 7972,
  "\u2581entirely": 7973,
  "\u2581hutoka": 7974,
  "\u2581improved": 7975,
  "\u2581kipagani": 7976,
  "\u2581mufupi": 7977,
  "\u2581ngapi": 7978,
  "\u2581planning": 7979,
  "\u2581sharp": 7980,
  "\u2581statements": 7981,
  "\u2581symbolic": 7982,
  "\u2581unrighteous": 7983,
  "\u2581wahalifu": 7984,
  "\u2581wakitumia": 7985,
  "\u2581wameona": 7986,
  "\u2581west": 7987,
  "\u2581wrath": 7988,
  "NA": 7989,
  "Your": 7990,
  "arne": 7991,
  "taji": 7992,
  "uc": 7993,
  "\u258118;": 7994,
  "\u25811947": 7995,
  "\u2581Caesar": 7996,
  "\u2581Endelea": 7997,
  "\u2581Food": 7998,
  "\u2581Viumbe": 7999,
  "\u2581babies": 8000,
  "\u2581believing": 8001,
  "\u2581chemchemi": 8002,
  "\u2581consist": 8003,
  "\u2581difficulty": 8004,
  "\u2581falls": 8005,
  "\u2581function": 8006,
  "\u2581gambling": 8007,
  "\u2581immediate": 8008,
  "\u2581kuandaa": 8009,
  "\u2581mapatano": 8010,
  "\u2581matawi": 8011,
  "\u2581musingi": 8012,
  "\u2581mw": 8013,
  "\u2581obeying": 8014,
  "\u2581overwhelmed": 8015,
  "\u2581participate": 8016,
  "\u2581promotes": 8017,
  "\u2581realistic": 8018,
  "\u2581represents": 8019,
  "\u2581upset": 8020,
  "ac": 8021,
  "ambiwa": 8022,
  "fasiria": 8023,
  "jaza": 8024,
  "koma": 8025,
  "\u2581Jioni": 8026,
  "\u2581Mazungumzo": 8027,
  "\u2581Ohio": 8028,
  "\u2581Review": 8029,
  "\u2581Wame": 8030,
  "\u2581adjustments": 8031,
  "\u2581bus": 8032,
  "\u2581chafu": 8033,
  "\u2581emergency": 8034,
  "\u2581idolatry": 8035,
  "\u2581kilele": 8036,
  "\u2581kufungua": 8037,
  "\u2581kumweleza": 8038,
  "\u2581maktaba": 8039,
  "\u2581memories": 8040,
  "\u2581midogo": 8041,
  "\u2581nizamu": 8042,
  "\u2581occurs": 8043,
  "\u2581peaceable": 8044,
  "\u2581realm": 8045,
  "\u2581uendelee": 8046,
  "000": 8047,
  "Wewe": 8048,
  "mtumwa": 8049,
  "tuonyesha": 8050,
  "\u25812003)": 8051,
  "\u258163": 8052,
  "\u2581Indonesia": 8053,
  "\u2581Mwanadamu": 8054,
  "\u2581Pre": 8055,
  "\u2581Were": 8056,
  "\u2581Zi": 8057,
  "\u2581consult": 8058,
  "\u2581desirable": 8059,
  "\u2581draws": 8060,
  "\u2581huwapa": 8061,
  "\u2581kurudisha": 8062,
  "\u2581manuscripts": 8063,
  "\u2581mbuga": 8064,
  "\u2581minane": 8065,
  "\u2581portion": 8066,
  "\u2581prosperity": 8067,
  "\u2581proverb": 8068,
  "\u2581resort": 8069,
  "\u2581rising": 8070,
  "\u2581tuweze": 8071,
  "\u2581twaweza": 8072,
  "\u2581ukuwe": 8073,
  "\u2581warnings": 8074,
  "\u2581weakness": 8075,
  "ambo": 8076,
  "ngojea": 8077,
  "ruka": 8078,
  "shangilia": 8079,
  "sk": 8080,
  "tengwa": 8081,
  "ue": 8082,
  "\u2581Uli": 8083,
  "\u2581asleep": 8084,
  "\u2581code": 8085,
  "\u2581diabetes": 8086,
  "\u2581discussing": 8087,
  "\u2581imprisoned": 8088,
  "\u2581kishawishi": 8089,
  "\u2581kitanda": 8090,
  "\u2581kuwachochea": 8091,
  "\u2581lilifanya": 8092,
  "\u2581lishe": 8093,
  "\u2581mguu": 8094,
  "\u2581politics": 8095,
  "\u2581pro": 8096,
  "\u2581sincerely": 8097,
  "\u2581tukuwe": 8098,
  "\u2581vyema": 8099,
  "ache": 8100,
  "ag": 8101,
  "buni": 8102,
  "kate": 8103,
  "line": 8104,
  "mchochea": 8105,
  "ors": 8106,
  "red": 8107,
  "tuchochea": 8108,
  "umalizio": 8109,
  "\u25811951": 8110,
  "\u25811953": 8111,
  "\u258140.": 8112,
  "\u2581Ge": 8113,
  "\u2581Herald": 8114,
  "\u2581Index": 8115,
  "\u2581Orthodox": 8116,
  "\u2581SUBJECT": 8117,
  "\u2581USED": 8118,
  "\u2581fled": 8119,
  "\u2581handed": 8120,
  "\u2581kikatili": 8121,
  "\u2581kuheshimu": 8122,
  "\u2581molekuli": 8123,
  "\u2581mukate": 8124,
  "\u2581repair": 8125,
  "\u2581waliamua": 8126,
  "By": 8127,
  "mtu": 8128,
  "mwabudu": 8129,
  "simuliwa": 8130,
  "\u2581110": 8131,
  "\u25811946": 8132,
  "\u25812000,": 8133,
  "\u258157": 8134,
  "\u2581Fany": 8135,
  "\u2581Last": 8136,
  "\u2581Magonjwa": 8137,
  "\u2581Mbona": 8138,
  "\u2581Ruler": 8139,
  "\u2581acquainted": 8140,
  "\u2581adding": 8141,
  "\u2581admitted": 8142,
  "\u2581coffee": 8143,
  "\u2581cycle": 8144,
  "\u2581domestic": 8145,
  "\u2581double": 8146,
  "\u2581glass": 8147,
  "\u2581inayopatikana": 8148,
  "\u2581infected": 8149,
  "\u2581jangwa": 8150,
  "\u2581judges": 8151,
  "\u2581minded": 8152,
  "\u2581mraba": 8153,
  "\u2581ngazi": 8154,
  "\u2581strangers": 8155,
  "\u2581tabernacle": 8156,
  "\u2581uzuri": 8157,
  "\u2581wajumbe": 8158,
  "\u2581wataishi": 8159,
  "\u2581weekly": 8160,
  "Si": 8161,
  "den": 8162,
  "tarajiwa": 8163,
  "tupwa": 8164,
  "\u2581Everyone": 8165,
  "\u2581Part": 8166,
  "\u2581Sermon": 8167,
  "\u2581ban": 8168,
  "\u2581bara": 8169,
  "\u2581barani": 8170,
  "\u2581containing": 8171,
  "\u2581en": 8172,
  "\u2581kuwahusu": 8173,
  "\u2581mhubiri": 8174,
  "\u2581priorities": 8175,
  "\u2581reflects": 8176,
  "\u2581rooms": 8177,
  "\u2581shinikizo": 8178,
  "\u2581supposed": 8179,
  "\u2581survival": 8180,
  "\u2581thoroughly": 8181,
  "\u2581unknown": 8182,
  "\u2581wanakubali": 8183,
  "\u2581worst": 8184,
  "\u2581zaweza": 8185,
  "AR": 8186,
  "chu": 8187,
  "jawahi": 8188,
  "nyi": 8189,
  "\u2581Barabara": 8190,
  "\u2581Kifaransa": 8191,
  "\u2581Mtazamo": 8192,
  "\u2581Top": 8193,
  "\u2581disappointed": 8194,
  "\u2581dramatic": 8195,
  "\u2581entrusted": 8196,
  "\u2581experiencing": 8197,
  "\u2581hoja": 8198,
  "\u2581hupatikana": 8199,
  "\u2581kika": 8200,
  "\u2581kirefu": 8201,
  "\u2581kusimamia": 8202,
  "\u2581kuvuka": 8203,
  "\u2581nimekuwa": 8204,
  "\u2581njiani": 8205,
  "\u2581proceeded": 8206,
  "\u2581ushuhuda": 8207,
  "\u2581wamejifunza": 8208,
  ",500": 8209,
  "Nita": 8210,
  "des": 8211,
  "geuzwa": 8212,
  "tuhakikishia": 8213,
  "\u258115;": 8214,
  "\u25814,000": 8215,
  "\u258195": 8216,
  "\u2581Above": 8217,
  "\u2581Dan": 8218,
  "\u2581Lugha": 8219,
  "\u2581Zilizo": 8220,
  "\u2581alizo": 8221,
  "\u2581atakapo": 8222,
  "\u2581attracted": 8223,
  "\u2581effectively": 8224,
  "\u2581golden": 8225,
  "\u2581inapatana": 8226,
  "\u2581kaboni": 8227,
  "\u2581kung": 8228,
  "\u2581pana": 8229,
  "\u2581priority": 8230,
  "\u2581sakafu": 8231,
  "\u2581surprising": 8232,
  "\u2581undani": 8233,
  "\u2581upper": 8234,
  "\u2581yanasema": 8235,
  "der": 8236,
  "fer": 8237,
  "fo": 8238,
  "ial": 8239,
  "mjua": 8240,
  "tanguliza": 8241,
  "\u2581Denmark": 8242,
  "\u2581Judges": 8243,
  "\u2581Knowing": 8244,
  "\u2581Tatu": 8245,
  "\u2581badilika": 8246,
  "\u2581beat": 8247,
  "\u2581combined": 8248,
  "\u2581earthquake": 8249,
  "\u2581endele": 8250,
  "\u2581humankind": 8251,
  "\u2581inatusaidia": 8252,
  "\u2581killing": 8253,
  "\u2581mashimo": 8254,
  "\u2581mifugo": 8255,
  "\u2581mnyoofu": 8256,
  "\u2581muundo": 8257,
  "\u2581perfectly": 8258,
  "\u2581repent": 8259,
  "\u2581thick": 8260,
  "\u2581upungufu": 8261,
  "\u2581witnessed": 8262,
  "\u2581yaonekana": 8263,
  "Who": 8264,
  "jitolea": 8265,
  "lipa": 8266,
  "mwita": 8267,
  "nda": 8268,
  "shawishiwa": 8269,
  "tenga": 8270,
  "wahi": 8271,
  "wana": 8272,
  "\u2581Faida": 8273,
  "\u2581Protestant": 8274,
  "\u2581Real": 8275,
  "\u2581arose": 8276,
  "\u2581buried": 8277,
  "\u2581commitment": 8278,
  "\u2581cried": 8279,
  "\u2581doubts": 8280,
  "\u2581famine": 8281,
  "\u2581haita": 8282,
  "\u2581kilogramu": 8283,
  "\u2581motive": 8284,
  "\u2581mutumishi": 8285,
  "\u2581mwanahistoria": 8286,
  "\u2581opinions": 8287,
  "\u2581prize": 8288,
  "\u2581shaba": 8289,
  "\u2581sija": 8290,
  "\u2581wamegundua": 8291,
  "\u2581yakiwa": 8292,
  "LI": 8293,
  "ens": 8294,
  "fanyika": 8295,
  "funguliwa": 8296,
  "ize": 8297,
  "mbi": 8298,
  "mwacha": 8299,
  "nukuu": 8300,
  "wekea": 8301,
  "\u258164": 8302,
  "\u2581GANI": 8303,
  "\u2581Panos": 8304,
  "\u2581abroad": 8305,
  "\u2581anxieties": 8306,
  "\u2581cool": 8307,
  "\u2581enduring": 8308,
  "\u2581ghali": 8309,
  "\u2581havi": 8310,
  "\u2581helper": 8311,
  "\u2581illustrated": 8312,
  "\u2581informed": 8313,
  "\u2581kikamilifu": 8314,
  "\u2581kupumzika": 8315,
  "\u2581kuvua": 8316,
  "\u2581maiti": 8317,
  "\u2581mweupe": 8318,
  "\u2581normally": 8319,
  "\u2581obvious": 8320,
  "\u2581philosophy": 8321,
  "\u2581rage": 8322,
  "\u2581tulio": 8323,
  "\u2581yalivyo": 8324,
  "\u2581zisizofaa": 8325,
  "ating": 8326,
  "faidika": 8327,
  "ld": 8328,
  "nce": 8329,
  "ung": 8330,
  "\u00fc": 8331,
  "\u258168": 8332,
  "\u2581Ahabu": 8333,
  "\u2581Any": 8334,
  "\u2581Eric": 8335,
  "\u2581MUNGU": 8336,
  "\u2581Moja": 8337,
  "\u2581Zawadi": 8338,
  "\u2581aliyekufa": 8339,
  "\u2581comparison": 8340,
  "\u2581iliandikwa": 8341,
  "\u2581maalumu": 8342,
  "\u2581mashetani": 8343,
  "\u2581overwhelming": 8344,
  "\u2581pursuit": 8345,
  "\u2581specifically": 8346,
  "\u2581tragic": 8347,
  "\u2581uone": 8348,
  "\u2581walitambua": 8349,
  "\u2581whenever": 8350,
  "\u2581yakawa": 8351,
  "\u2581yanamaanisha": 8352,
  "SHA": 8353,
  "barikiwa": 8354,
  "fananishwa": 8355,
  "time": 8356,
  "\u25815,000": 8357,
  "\u2581Akili": 8358,
  "\u2581Amazon": 8359,
  "\u2581Copyright": 8360,
  "\u2581Creation": 8361,
  "\u2581Epuk": 8362,
  "\u2581Ga": 8363,
  "\u2581Siria": 8364,
  "\u2581Uganda": 8365,
  "\u2581Wafanyakazi": 8366,
  "\u2581kumheshimu": 8367,
  "\u2581linalotafsiriwa": 8368,
  "\u2581maturity": 8369,
  "\u2581nyote": 8370,
  "\u2581reasoned": 8371,
  "\u2581ruhusa": 8372,
  "\u2581sayings": 8373,
  "\u2581tower": 8374,
  "\u2581wash": 8375,
  "\u2581wasimamizi": 8376,
  "heshimiwa": 8377,
  "kuwepo": 8378,
  "letting": 8379,
  "pl": 8380,
  "wavutia": 8381,
  "\u25812000)": 8382,
  "\u2581Ahab": 8383,
  "\u2581Amri": 8384,
  "\u2581Chumvi": 8385,
  "\u2581Diagram": 8386,
  "\u2581HILI": 8387,
  "\u2581Had": 8388,
  "\u2581Michezo": 8389,
  "\u2581Prague": 8390,
  "\u2581Search": 8391,
  "\u2581Wall": 8392,
  "\u2581approximate": 8393,
  "\u2581card": 8394,
  "\u2581creating": 8395,
  "\u2581defense": 8396,
  "\u2581ease": 8397,
  "\u2581expert": 8398,
  "\u2581lion": 8399,
  "\u2581magnificent": 8400,
  "\u2581makumi": 8401,
  "\u2581mishipani": 8402,
  "\u2581openly": 8403,
  "\u2581patriarch": 8404,
  "\u2581press": 8405,
  "\u2581similarly": 8406,
  "\u2581tea": 8407,
  "\u2581viewing": 8408,
  "ris": 8409,
  "\u2581800": 8410,
  "\u2581Central": 8411,
  "\u2581Wales": 8412,
  "\u2581b": 8413,
  "\u2581branches": 8414,
  "\u2581demands": 8415,
  "\u2581despair": 8416,
  "\u2581devastating": 8417,
  "\u2581everyday": 8418,
  "\u2581fifth": 8419,
  "\u2581firstborn": 8420,
  "\u2581influences": 8421,
  "\u2581kupitisha": 8422,
  "\u2581kuvu": 8423,
  "\u2581modesty": 8424,
  "\u2581punda": 8425,
  "\u2581sexually": 8426,
  "\u2581unahisi": 8427,
  "\u2581utakao": 8428,
  "\u2581vow": 8429,
  "\u2581waligundua": 8430,
  "\u2581yield": 8431,
  "jitoa": 8432,
  "mweka": 8433,
  "natia": 8434,
  "tokezwa": 8435,
  "wali": 8436,
  "\u2581Ama": 8437,
  "\u2581Daktari": 8438,
  "\u2581FROM": 8439,
  "\u2581KUTUMIWA": 8440,
  "\u2581Royal": 8441,
  "\u2581Sura": 8442,
  "\u2581Tokyo": 8443,
  "\u2581Viongozi": 8444,
  "\u2581akaandika": 8445,
  "\u2581al": 8446,
  "\u2581bima": 8447,
  "\u2581destination": 8448,
  "\u2581di": 8449,
  "\u2581flower": 8450,
  "\u2581gentle": 8451,
  "\u2581grant": 8452,
  "\u2581magugu": 8453,
  "\u2581meals": 8454,
  "\u2581meditating": 8455,
  "\u2581privileged": 8456,
  "\u2581shame": 8457,
  "\u2581sole": 8458,
  "\u2581subjection": 8459,
  "\u2581supporting": 8460,
  "\u2581tele": 8461,
  "\u2581testimony": 8462,
  "\u2581traditions": 8463,
  "\u2581university": 8464,
  "\u2581usawa": 8465,
  "cal": 8466,
  "lelewa": 8467,
  "\u2581103": 8468,
  "\u258132,": 8469,
  "\u2581Bas": 8470,
  "\u2581Bolivia": 8471,
  "\u2581Haruni": 8472,
  "\u2581Numbers": 8473,
  "\u2581Ufu": 8474,
  "\u2581Ukraine": 8475,
  "\u2581Uswisi": 8476,
  "\u2581Utafiti": 8477,
  "\u2581Wababiloni": 8478,
  "\u2581attached": 8479,
  "\u2581detailed": 8480,
  "\u2581earn": 8481,
  "\u2581honesty": 8482,
  "\u2581manage": 8483,
  "\u2581mapendekezo": 8484,
  "\u2581sahili": 8485,
  "\u2581separated": 8486,
  "\u2581tool": 8487,
  "\u2581ukamili": 8488,
  "\u2581villages": 8489,
  "20": 8490,
  "sumbuliwa": 8491,
  "\u25811944": 8492,
  "\u25811988": 8493,
  "\u2581Answered": 8494,
  "\u2581Gideoni": 8495,
  "\u2581Report": 8496,
  "\u2581advancement": 8497,
  "\u2581afflicted": 8498,
  "\u2581aweza": 8499,
  "\u2581commandment": 8500,
  "\u2581endless": 8501,
  "\u2581hated": 8502,
  "\u2581kuathiriwa": 8503,
  "\u2581muzunguko": 8504,
  "\u2581recommended": 8505,
  "\u2581resident": 8506,
  "\u2581rewards": 8507,
  "\u2581steal": 8508,
  "\u2581strange": 8509,
  "\u2581taarifa": 8510,
  "\u2581walifikiri": 8511,
  "\u2581\u00b0": 8512,
  "Young": 8513,
  "tazamiwa": 8514,
  "tubu": 8515,
  "\u25811950,": 8516,
  "\u2581Become": 8517,
  "\u2581Bethlehem": 8518,
  "\u2581Catholics": 8519,
  "\u2581Kutoa": 8520,
  "\u2581Zambia": 8521,
  "\u2581alichagua": 8522,
  "\u2581announced": 8523,
  "\u2581engaging": 8524,
  "\u2581kipand": 8525,
  "\u2581kudai": 8526,
  "\u2581kulipiz": 8527,
  "\u2581mapokeo": 8528,
  "\u2581mentions": 8529,
  "\u2581minor": 8530,
  "\u2581owner": 8531,
  "\u2581starehe": 8532,
  "\u2581unexpected": 8533,
  "\u2581walipenda": 8534,
  "\u2581wanahisi": 8535,
  "\u2581wanaotumia": 8536,
  "ak": 8537,
  "ap": 8538,
  "are": 8539,
  "chunguzi": 8540,
  "ek": 8541,
  "ius": 8542,
  "jishughulisha": 8543,
  "kutia": 8544,
  "ok": 8545,
  "other": 8546,
  "yn": 8547,
  "\u2581Eastern": 8548,
  "\u2581Gideon": 8549,
  "\u2581Wazo": 8550,
  "\u2581anayetaka": 8551,
  "\u2581attempts": 8552,
  "\u2581avoided": 8553,
  "\u2581kuhuzuria": 8554,
  "\u2581maintained": 8555,
  "\u2581makaa": 8556,
  "\u2581massive": 8557,
  "\u2581meantime": 8558,
  "\u2581milango": 8559,
  "\u2581obstacles": 8560,
  "\u2581sending": 8561,
  "\u2581settle": 8562,
  "\u2581sugu": 8563,
  "\u2581theocratic": 8564,
  "\u2581trustworthy": 8565,
  "\u2581watafsiri": 8566,
  "takuwapo": 8567,
  "teswa": 8568,
  "there": 8569,
  "zungumuziwa": 8570,
  "\u258186": 8571,
  "\u258198": 8572,
  "\u2581Assembly": 8573,
  "\u2581Kaisari": 8574,
  "\u2581Ko": 8575,
  "\u2581Office": 8576,
  "\u2581chupa": 8577,
  "\u2581communities": 8578,
  "\u2581constructed": 8579,
  "\u2581crowds": 8580,
  "\u2581destructive": 8581,
  "\u2581falling": 8582,
  "\u2581generations": 8583,
  "\u2581kumupenda": 8584,
  "\u2581mabishano": 8585,
  "\u2581mafuriko": 8586,
  "\u2581mvuke": 8587,
  "\u2581naturally": 8588,
  "\u2581ningeweza": 8589,
  "\u2581protective": 8590,
  "\u2581track": 8591,
  "\u2581uje": 8592,
  "0": 8593,
  "hifadhiwa": 8594,
  "pangwa": 8595,
  "q": 8596,
  "shangaa": 8597,
  "tz": 8598,
  "\u2581Gold": 8599,
  "\u2581Knowledge": 8600,
  "\u2581STUDY": 8601,
  "\u2581anayo": 8602,
  "\u2581badly": 8603,
  "\u2581burudani": 8604,
  "\u2581clouds": 8605,
  "\u2581concept": 8606,
  "\u2581fought": 8607,
  "\u2581haukuwa": 8608,
  "\u2581healed": 8609,
  "\u2581kujitiisha": 8610,
  "\u2581masharti": 8611,
  "\u2581nest": 8612,
  "\u2581party": 8613,
  "\u2581rarely": 8614,
  "\u2581remnant": 8615,
  "\u2581span": 8616,
  "\u2581spot": 8617,
  "\u2581unafikiri": 8618,
  "\u2581unasema": 8619,
  "\u2581upatano": 8620,
  "Tazama": 8621,
  "agiza": 8622,
  "apenzi": 8623,
  "endeshwa": 8624,
  "ious": 8625,
  "mshukuru": 8626,
  "ria": 8627,
  "sta": 8628,
  "\u2581Anapo": 8629,
  "\u2581Binti": 8630,
  "\u2581Canaan": 8631,
  "\u2581Gen": 8632,
  "\u2581Gett": 8633,
  "\u2581Purpose": 8634,
  "\u2581Van": 8635,
  "\u2581alifurahi": 8636,
  "\u2581amounts": 8637,
  "\u2581anaahidi": 8638,
  "\u2581deception": 8639,
  "\u2581declaring": 8640,
  "\u2581examining": 8641,
  "\u2581homoni": 8642,
  "\u2581instruments": 8643,
  "\u2581isiyofaa": 8644,
  "\u2581kofia": 8645,
  "\u2581lacking": 8646,
  "\u2581mka": 8647,
  "\u2581oppression": 8648,
  "\u2581somewhat": 8649,
  "\u2581valley": 8650,
  "\u2581vary": 8651,
  "\u2581vegetation": 8652,
  "\u2581waliuawa": 8653,
  "fua": 8654,
  "gonga": 8655,
  "lingana": 8656,
  "tofautiana": 8657,
  "vuka": 8658,
  "\u2581Kina": 8659,
  "\u2581Kusanyiko": 8660,
  "\u2581Ukrainia": 8661,
  "\u2581advanced": 8662,
  "\u2581alifikiri": 8663,
  "\u2581creative": 8664,
  "\u2581criminal": 8665,
  "\u2581distinguish": 8666,
  "\u2581distributed": 8667,
  "\u2581huwasaidia": 8668,
  "\u2581increases": 8669,
  "\u2581kukunjwa": 8670,
  "\u2581kuzoeza": 8671,
  "\u2581loud": 8672,
  "\u2581manjano": 8673,
  "\u2581marriages": 8674,
  "\u2581mitindo": 8675,
  "\u2581msemaji": 8676,
[...]
